{
    "<unk>": 0,
    "<s>": 1,
    "</s>": 2,
    "<0x00>": 3,
    "<0x01>": 4,
    "<0x02>": 5,
    "<0x03>": 6,
    "<0x04>": 7,
    "<0x05>": 8,
    "<0x06>": 9,
    "<0x07>": 10,
    "<0x08>": 11,
    "<0x09>": 12,
    "<0x0A>": 13,
    "<0x0B>": 14,
    "<0x0C>": 15,
    "<0x0D>": 16,
    "<0x0E>": 17,
    "<0x0F>": 18,
    "<0x10>": 19,
    "<0x11>": 20,
    "<0x12>": 21,
    "<0x13>": 22,
    "<0x14>": 23,
    "<0x15>": 24,
    "<0x16>": 25,
    "<0x17>": 26,
    "<0x18>": 27,
    "<0x19>": 28,
    "<0x1A>": 29,
    "<0x1B>": 30,
    "<0x1C>": 31,
    "<0x1D>": 32,
    "<0x1E>": 33,
    "<0x1F>": 34,
    "<0x20>": 35,
    "<0x21>": 36,
    "<0x22>": 37,
    "<0x23>": 38,
    "<0x24>": 39,
    "<0x25>": 40,
    "<0x26>": 41,
    "<0x27>": 42,
    "<0x28>": 43,
    "<0x29>": 44,
    "<0x2A>": 45,
    "<0x2B>": 46,
    "<0x2C>": 47,
    "<0x2D>": 48,
    "<0x2E>": 49,
    "<0x2F>": 50,
    "<0x30>": 51,
    "<0x31>": 52,
    "<0x32>": 53,
    "<0x33>": 54,
    "<0x34>": 55,
    "<0x35>": 56,
    "<0x36>": 57,
    "<0x37>": 58,
    "<0x38>": 59,
    "<0x39>": 60,
    "<0x3A>": 61,
    "<0x3B>": 62,
    "<0x3C>": 63,
    "<0x3D>": 64,
    "<0x3E>": 65,
    "<0x3F>": 66,
    "<0x40>": 67,
    "<0x41>": 68,
    "<0x42>": 69,
    "<0x43>": 70,
    "<0x44>": 71,
    "<0x45>": 72,
    "<0x46>": 73,
    "<0x47>": 74,
    "<0x48>": 75,
    "<0x49>": 76,
    "<0x4A>": 77,
    "<0x4B>": 78,
    "<0x4C>": 79,
    "<0x4D>": 80,
    "<0x4E>": 81,
    "<0x4F>": 82,
    "<0x50>": 83,
    "<0x51>": 84,
    "<0x52>": 85,
    "<0x53>": 86,
    "<0x54>": 87,
    "<0x55>": 88,
    "<0x56>": 89,
    "<0x57>": 90,
    "<0x58>": 91,
    "<0x59>": 92,
    "<0x5A>": 93,
    "<0x5B>": 94,
    "<0x5C>": 95,
    "<0x5D>": 96,
    "<0x5E>": 97,
    "<0x5F>": 98,
    "<0x60>": 99,
    "<0x61>": 100,
    "<0x62>": 101,
    "<0x63>": 102,
    "<0x64>": 103,
    "<0x65>": 104,
    "<0x66>": 105,
    "<0x67>": 106,
    "<0x68>": 107,
    "<0x69>": 108,
    "<0x6A>": 109,
    "<0x6B>": 110,
    "<0x6C>": 111,
    "<0x6D>": 112,
    "<0x6E>": 113,
    "<0x6F>": 114,
    "<0x70>": 115,
    "<0x71>": 116,
    "<0x72>": 117,
    "<0x73>": 118,
    "<0x74>": 119,
    "<0x75>": 120,
    "<0x76>": 121,
    "<0x77>": 122,
    "<0x78>": 123,
    "<0x79>": 124,
    "<0x7A>": 125,
    "<0x7B>": 126,
    "<0x7C>": 127,
    "<0x7D>": 128,
    "<0x7E>": 129,
    "<0x7F>": 130,
    "<0x80>": 131,
    "<0x81>": 132,
    "<0x82>": 133,
    "<0x83>": 134,
    "<0x84>": 135,
    "<0x85>": 136,
    "<0x86>": 137,
    "<0x87>": 138,
    "<0x88>": 139,
    "<0x89>": 140,
    "<0x8A>": 141,
    "<0x8B>": 142,
    "<0x8C>": 143,
    "<0x8D>": 144,
    "<0x8E>": 145,
    "<0x8F>": 146,
    "<0x90>": 147,
    "<0x91>": 148,
    "<0x92>": 149,
    "<0x93>": 150,
    "<0x94>": 151,
    "<0x95>": 152,
    "<0x96>": 153,
    "<0x97>": 154,
    "<0x98>": 155,
    "<0x99>": 156,
    "<0x9A>": 157,
    "<0x9B>": 158,
    "<0x9C>": 159,
    "<0x9D>": 160,
    "<0x9E>": 161,
    "<0x9F>": 162,
    "<0xA0>": 163,
    "<0xA1>": 164,
    "<0xA2>": 165,
    "<0xA3>": 166,
    "<0xA4>": 167,
    "<0xA5>": 168,
    "<0xA6>": 169,
    "<0xA7>": 170,
    "<0xA8>": 171,
    "<0xA9>": 172,
    "<0xAA>": 173,
    "<0xAB>": 174,
    "<0xAC>": 175,
    "<0xAD>": 176,
    "<0xAE>": 177,
    "<0xAF>": 178,
    "<0xB0>": 179,
    "<0xB1>": 180,
    "<0xB2>": 181,
    "<0xB3>": 182,
    "<0xB4>": 183,
    "<0xB5>": 184,
    "<0xB6>": 185,
    "<0xB7>": 186,
    "<0xB8>": 187,
    "<0xB9>": 188,
    "<0xBA>": 189,
    "<0xBB>": 190,
    "<0xBC>": 191,
    "<0xBD>": 192,
    "<0xBE>": 193,
    "<0xBF>": 194,
    "<0xC0>": 195,
    "<0xC1>": 196,
    "<0xC2>": 197,
    "<0xC3>": 198,
    "<0xC4>": 199,
    "<0xC5>": 200,
    "<0xC6>": 201,
    "<0xC7>": 202,
    "<0xC8>": 203,
    "<0xC9>": 204,
    "<0xCA>": 205,
    "<0xCB>": 206,
    "<0xCC>": 207,
    "<0xCD>": 208,
    "<0xCE>": 209,
    "<0xCF>": 210,
    "<0xD0>": 211,
    "<0xD1>": 212,
    "<0xD2>": 213,
    "<0xD3>": 214,
    "<0xD4>": 215,
    "<0xD5>": 216,
    "<0xD6>": 217,
    "<0xD7>": 218,
    "<0xD8>": 219,
    "<0xD9>": 220,
    "<0xDA>": 221,
    "<0xDB>": 222,
    "<0xDC>": 223,
    "<0xDD>": 224,
    "<0xDE>": 225,
    "<0xDF>": 226,
    "<0xE0>": 227,
    "<0xE1>": 228,
    "<0xE2>": 229,
    "<0xE3>": 230,
    "<0xE4>": 231,
    "<0xE5>": 232,
    "<0xE6>": 233,
    "<0xE7>": 234,
    "<0xE8>": 235,
    "<0xE9>": 236,
    "<0xEA>": 237,
    "<0xEB>": 238,
    "<0xEC>": 239,
    "<0xED>": 240,
    "<0xEE>": 241,
    "<0xEF>": 242,
    "<0xF0>": 243,
    "<0xF1>": 244,
    "<0xF2>": 245,
    "<0xF3>": 246,
    "<0xF4>": 247,
    "<0xF5>": 248,
    "<0xF6>": 249,
    "<0xF7>": 250,
    "<0xF8>": 251,
    "<0xF9>": 252,
    "<0xFA>": 253,
    "<0xFB>": 254,
    "<0xFC>": 255,
    "<0xFD>": 256,
    "<0xFE>": 257,
    "<0xFF>": 258,
    "\u2581\u2581": 259,
    "\u2581t": 260,
    "er": 261,
    "in": 262,
    "\u2581a": 263,
    "en": 264,
    "on": 265,
    "\u2581th": 266,
    "es": 267,
    "\u2581\u2581\u2581\u2581": 268,
    "\u2581s": 269,
    "\u2581d": 270,
    "at": 271,
    "or": 272,
    "an": 273,
    "\u2581c": 274,
    "is": 275,
    "re": 276,
    "it": 277,
    "\u2581the": 278,
    "ar": 279,
    "le": 280,
    "\u2581w": 281,
    "\u2581p": 282,
    "ou": 283,
    "al": 284,
    "\u2581f": 285,
    "\u2581m": 286,
    "ed": 287,
    "\u2581o": 288,
    "\u2581b": 289,
    "om": 290,
    "ion": 291,
    "ing": 292,
    "ic": 293,
    "as": 294,
    "el": 295,
    "ent": 296,
    "\u2581in": 297,
    "\u2581h": 298,
    "nd": 299,
    "et": 300,
    "\u2581l": 301,
    "\u2581n": 302,
    "st": 303,
    "\u2581to": 304,
    "ch": 305,
    "\u2581I": 306,
    "ro": 307,
    "\u2581\u2581\u2581\u2581\u2581\u2581\u2581\u2581": 308,
    "il": 309,
    "\u2581of": 310,
    "de": 311,
    "ct": 312,
    "\u2581(": 313,
    "am": 314,
    "\u2581C": 315,
    "\u2581de": 316,
    "\u2581S": 317,
    "\u2581u": 318,
    "\u2581A": 319,
    "\u2581\\": 320,
    "\u2581e": 321,
    "\u2581and": 322,
    "\u2581T": 323,
    "ol": 324,
    "\u2581v": 325,
    "im": 326,
    "ot": 327,
    "ad": 328,
    "ut": 329,
    "\u2581g": 330,
    "em": 331,
    "ur": 332,
    "id": 333,
    "\u2581*": 334,
    "ig": 335,
    "ra": 336,
    "\u2581re": 337,
    "\u2581is": 338,
    "qu": 339,
    "ow": 340,
    "\u2581M": 341,
    "est": 342,
    "\u2581y": 343,
    "se": 344,
    "ve": 345,
    "ce": 346,
    "ie": 347,
    "un": 348,
    "\u2581P": 349,
    "\u2581B": 350,
    "ag": 351,
    "ul": 352,
    "\u2581=": 353,
    "he": 354,
    "end": 355,
    "ode": 356,
    "ter": 357,
    "ment": 358,
    "os": 359,
    "\u2581D": 360,
    "if": 361,
    "ation": 362,
    "\u2581for": 363,
    "\u2581r": 364,
    "\u2581L": 365,
    "\u2581you": 366,
    "\u2581be": 367,
    "ly": 368,
    "ver": 369,
    "ab": 370,
    "te": 371,
    "\u2581it": 372,
    "\u2581on": 373,
    "ri": 374,
    "us": 375,
    "\u2581\"": 376,
    "\u2581wh": 377,
    "\u2581con": 378,
    "\u2581H": 379,
    "\u2581st": 380,
    "ir": 381,
    "\u2581E": 382,
    "\u2581F": 383,
    "ck": 384,
    "\u2581an": 385,
    "th": 386,
    "eg": 387,
    "ay": 388,
    "ith": 389,
    "\u2581R": 390,
    "ist": 391,
    "and": 392,
    "\u2581that": 393,
    "\u2581al": 394,
    "\u2581$": 395,
    "\u2581#": 396,
    "od": 397,
    "um": 398,
    "\u2581W": 399,
    "ht": 400,
    "code": 401,
    "\u2581G": 402,
    "ate": 403,
    "ess": 404,
    "\u2581N": 405,
    "ere": 406,
    "pp": 407,
    "\u2581as": 408,
    "\u2581se": 409,
    "\u2581pro": 410,
    "\u2581with": 411,
    "pe": 412,
    "\u2581k": 413,
    "ers": 414,
    "pt": 415,
    ");": 416,
    "lo": 417,
    "\u2581\u2581\u2581\u2581\u2581": 418,
    "\u2581com": 419,
    "ame": 420,
    "\u2581`": 421,
    "\u2581Com": 422,
    "ia": 423,
    "ant": 424,
    "\u2581la": 425,
    "\u2581{": 426,
    "\u2581en": 427,
    "ction": 428,
    "\u2581ex": 429,
    "ld": 430,
    "ub": 431,
    "\u2581j": 432,
    "la": 433,
    "ue": 434,
    "\u2581J": 435,
    "ich": 436,
    "\u2581do": 437,
    "\u2581O": 438,
    "\u2581qu": 439,
    "iv": 440,
    "ort": 441,
    "art": 442,
    "\u2581un": 443,
    "\u2581##": 444,
    "\u2581this": 445,
    "ke": 446,
    "\u2581ha": 447,
    "\u2581-": 448,
    "out": 449,
    "\u2581The": 450,
    "\u2581not": 451,
    "\u2581ne": 452,
    "ill": 453,
    "\u2581le": 454,
    "ci": 455,
    "rom": 456,
    "ine": 457,
    "//": 458,
    "op": 459,
    "egin": 460,
    "\u2581Comment": 461,
    "\u2581\u2581\u2581\u2581\u2581\u2581\u2581\u2581\u2581\u2581\u2581\u2581\u2581\u2581\u2581\u2581": 462,
    "begin": 463,
    "\u0441\u0442": 464,
    "ass": 465,
    "iz": 466,
    ").": 467,
    "og": 468,
    "\u2581\u043f": 469,
    "\u2581or": 470,
    "\u2581was": 471,
    "\u2581at": 472,
    "our": 473,
    "\u2581i": 474,
    "ain": 475,
    "\u2581K": 476,
    "\u043d\u0430": 477,
    "\u2581V": 478,
    "ge": 479,
    "\u2581su": 480,
    "ap": 481,
    "age": 482,
    "ould": 483,
    "ne": 484,
    "av": 485,
    "xt": 486,
    "ore": 487,
    "ile": 488,
    "--": 489,
    "\u2581\u0432": 490,
    "\u2581by": 491,
    "li": 492,
    "ath": 493,
    "\u0440\u0430": 494,
    "ber": 495,
    "ach": 496,
    "all": 497,
    "\u2581Th": 498,
    "ult": 499,
    "\u2581}": 500,
    "\u2581U": 501,
    "\u2581us": 502,
    "\u2581z": 503,
    "ust": 504,
    "\u2581have": 505,
    "lic": 506,
    "\u043d\u0438": 507,
    "\u2581can": 508,
    "tr": 509,
    "com": 510,
    "),": 511,
    "\u2581In": 512,
    "ind": 513,
    "ell": 514,
    "\u2581from": 515,
    "\u043e\u0432": 516,
    "to": 517,
    "\u2581[": 518,
    "able": 519,
    "ost": 520,
    "\u2581ch": 521,
    "ect": 522,
    "ight": 523,
    "int": 524,
    "\u2581'": 525,
    "\u2581are": 526,
    "\u2581im": 527,
    "\u2581sh": 528,
    "\u2581<": 529,
    "\u2581An": 530,
    "\u2581\u0441": 531,
    "ata": 532,
    "ire": 533,
    "\u2581tr": 534,
    "con": 535,
    "ord": 536,
    "ity": 537,
    "ard": 538,
    "\u2581\u2581\u2581\u2581\u2581\u2581": 539,
    "\u2581he": 540,
    "\u2581but": 541,
    "oc": 542,
    "=\"": 543,
    "\u2581pr": 544,
    "ure": 545,
    "per": 546,
    "ack": 547,
    "ork": 548,
    "ong": 549,
    "ans": 550,
    "\u043a\u043e": 551,
    "ple": 552,
    "\u2581des": 553,
    "ok": 554,
    "orm": 555,
    "wer": 556,
    "ak": 557,
    "pr": 558,
    "ase": 559,
    "\u2581el": 560,
    "ph": 561,
    "ac": 562,
    "\u2581und": 563,
    "\u2581ar": 564,
    "\u2581if": 565,
    "ud": 566,
    "ps": 567,
    "ite": 568,
    "ble": 569,
    "\u043d\u043e": 570,
    "fer": 571,
    "pl": 572,
    "ive": 573,
    "ang": 574,
    "ens": 575,
    "\u0440\u043e": 576,
    "\u2581so": 577,
    "so": 578,
    "ast": 579,
    "()": 580,
    "swer": 581,
    "ru": 582,
    "ies": 583,
    "\u2581:": 584,
    "au": 585,
    "ov": 586,
    "\u0440\u0435": 587,
    "\u0433\u043e": 588,
    "\u2581der": 589,
    "\u2581my": 590,
    "\u2581we": 591,
    "\u2581me": 592,
    "nt": 593,
    "\u2581ad": 594,
    "urn": 595,
    "\u2581your": 596,
    "://": 597,
    "are": 598,
    "\u2581all": 599,
    "ff": 600,
    "io": 601,
    "estion": 602,
    "ime": 603,
    "\u2581er": 604,
    "lass": 605,
    "\u2581\u0438": 606,
    "\u2581which": 607,
    "ome": 608,
    "ont": 609,
    "\u2581par": 610,
    "\u2581ma": 611,
    "\u2581Y": 612,
    "\",": 613,
    "\u2581\u043e": 614,
    "ft": 615,
    "ial": 616,
    "cc": 617,
    "ound": 618,
    "\u2581li": 619,
    "\u2581res": 620,
    "eth": 621,
    "ject": 622,
    "\u2581app": 623,
    "\u2581St": 624,
    "ice": 625,
    "\u2581am": 626,
    "act": 627,
    "\u2581del": 628,
    "gr": 629,
    "ated": 630,
    "ier": 631,
    "\u2581\u2581\u2581\u2581\u2581\u2581\u2581\u2581\u2581\u2581\u2581\u2581": 632,
    "\u2581ab": 633,
    "\u2581et": 634,
    "ally": 635,
    "..": 636,
    "port": 637,
    "ik": 638,
    "\u2581per": 639,
    "\u2581cont": 640,
    "\u0440\u0438": 641,
    "\u043a\u0430": 642,
    "ser": 643,
    "\u043b\u0438": 644,
    "ll": 645,
    "iew": 646,
    "ign": 647,
    "_{": 648,
    "put": 649,
    "one": 650,
    "unction": 651,
    "\u2581di": 652,
    "ary": 653,
    "ition": 654,
    "ma": 655,
    "\u0435\u043d": 656,
    "get": 657,
    "\u2581lo": 658,
    "\u2581val": 659,
    "\u2581Q": 660,
    "ran": 661,
    "\u2581\u0434": 662,
    "ence": 663,
    "\u2581work": 664,
    "\u2581\u043d\u0430": 665,
    "ip": 666,
    "item": 667,
    "ype": 668,
    "\u2581&": 669,
    "\u2581his": 670,
    "\u2581use": 671,
    "der": 672,
    "\u2581Answer": 673,
    "\u2581will": 674,
    "ize": 675,
    "\u0442\u0430": 676,
    "low": 677,
    "\u2581Ch": 678,
    "\u2581get": 679,
    "ide": 680,
    "ous": 681,
    "ink": 682,
    "ption": 683,
    "\u043b\u0430": 684,
    "turn": 685,
    "ung": 686,
    "ec": 687,
    "ug": 688,
    "form": 689,
    "res": 690,
    "htt": 691,
    "oug": 692,
    "\u043b\u044c": 693,
    "\u2581no": 694,
    "cl": 695,
    "\u2581ro": 696,
    "\u2581one": 697,
    "tt": 698,
    "cri": 699,
    "du": 700,
    "\u2581up": 701,
    "\u0442\u043e": 702,
    "(\"": 703,
    "\u2581ob": 704,
    "we": 705,
    "ory": 706,
    "\u2581est": 707,
    "ery": 708,
    "iel": 709,
    "str": 710,
    "ob": 711,
    "\u2581que": 712,
    "ian": 713,
    "\u2581out": 714,
    "\u2581pl": 715,
    "\u2581new": 716,
    "\u043a\u0438": 717,
    "\u2581+": 718,
    "ry": 719,
    "oth": 720,
    "ther": 721,
    "\u2581var": 722,
    "\u2581would": 723,
    "\u2581ser": 724,
    "tern": 725,
    "text": 726,
    "\u2581there": 727,
    "ish": 728,
    "ror": 729,
    "\u0442\u0435": 730,
    "\u2581set": 731,
    "\u2581@": 732,
    "\u2581\u043f\u043e": 733,
    "\u2581te": 734,
    "ex": 735,
    "\u2581return": 736,
    "ail": 737,
    "\u2581any": 738,
    "\u2581It": 739,
    "\u2581function": 740,
    "{\\": 741,
    "',": 742,
    "\u00e9s": 743,
    "ale": 744,
    "\u0430\u043d": 745,
    "\u2581when": 746,
    "ib": 747,
    "\u2581go": 748,
    "ance": 749,
    "\u2581had": 750,
    "\u2581Qu": 751,
    "\u2581comp": 752,
    "\u043b\u0435": 753,
    "\u2581\u0437": 754,
    "math": 755,
    "\u2581has": 756,
    "\u2581\u043c": 757,
    "\u2581pre": 758,
    "ener": 759,
    "\u2581part": 760,
    "elf": 761,
    "\u2581die": 762,
    "\u2581like": 763,
    "ray": 764,
    "irst": 765,
    "\u2581dis": 766,
    "\u2581man": 767,
    "rit": 768,
    "\u2581then": 769,
    "\u2581class": 770,
    "pro": 771,
    "\u2581po": 772,
    "\u2581using": 773,
    "eb": 774,
    "\u2581code": 775,
    "own": 776,
    "\u2581some": 777,
    "ces": 778,
    "\u2581$\\": 779,
    "\u0435\u0440": 780,
    "lect": 781,
    "\u2581au": 782,
    "isch": 783,
    "\u2581col": 784,
    "\u2581\u2013": 785,
    "up": 786,
    "ons": 787,
    "\u2581add": 788,
    "ild": 789,
    "iss": 790,
    "val": 791,
    "ount": 792,
    "les": 793,
    "vent": 794,
    "\u2581\u2581\u2581\u2581\u2581\u2581\u2581\u2581\u2581\u2581\u2581\u2581\u2581": 795,
    "\u2581Z": 796,
    "In": 797,
    "row": 798,
    "ear": 799,
    "ations": 800,
    "ah": 801,
    "que": 802,
    "ublic": 803,
    "ank": 804,
    "\u2581sp": 805,
    "\u2581Wh": 806,
    "----": 807,
    "sk": 808,
    "ew": 809,
    "ags": 810,
    "\u0442\u0438": 811,
    "ann": 812,
    "\u2581\u2014": 813,
    "ert": 814,
    "ace": 815,
    "sch": 816,
    "\u2581need": 817,
    "\u2581\u00e0": 818,
    "ien": 819,
    "ough": 820,
    "\u043d\u0435": 821,
    "\u2581def": 822,
    "ij": 823,
    "ern": 824,
    "\u2581what": 825,
    "\u2581Ar": 826,
    "wo": 827,
    "ml": 828,
    "</": 829,
    "\u2581Re": 830,
    "\u2581es": 831,
    "\u2581inst": 832,
    "bo": 833,
    "az": 834,
    "\u2581###": 835,
    "\u2581\u0431": 836,
    "erm": 837,
    "\u2581Al": 838,
    "led": 839,
    "\u0434\u0430": 840,
    "ten": 841,
    "set": 842,
    "\u043b\u043e": 843,
    "\u2581comm": 844,
    "sh": 845,
    "\u0432\u0430": 846,
    "\u2581/": 847,
    "\u2581data": 848,
    "\u2581//": 849,
    "](": 850,
    "\u2581str": 851,
    "ose": 852,
    "\u2581Un": 853,
    "ven": 854,
    "St": 855,
    "...": 856,
    "\u2581\u0421": 857,
    "yst": 858,
    "\u2581\u00ab": 859,
    "ick": 860,
    "ix": 861,
    "par": 862,
    "\u2581\u0443": 863,
    "\u2581want": 864,
    "ng": 865,
    "ote": 866,
    "\u2581gr": 867,
    "\u2581du": 868,
    "\u2581.": 869,
    "und": 870,
    "\u2581only": 871,
    "\u2581sa": 872,
    "ely": 873,
    "vers": 874,
    "\u2581ent": 875,
    "))": 876,
    "('": 877,
    "\u2581mod": 878,
    "ava": 879,
    "ton": 880,
    "\u2581should": 881,
    "ement": 882,
    "\u2581form": 883,
    "\u2581also": 884,
    "\u2581sc": 885,
    "ings": 886,
    "\u2581You": 887,
    "\u00f3n": 888,
    "\u2581kn": 889,
    "();": 890,
    "\u2581|": 891,
    "\u2581were": 892,
    "ss": 893,
    "\u2581Question": 894,
    "ise": 895,
    "\u2581they": 896,
    "\u2581De": 897,
    "ond": 898,
    "\u2581sol": 899,
    "\u2581fol": 900,
    "\u2581more": 901,
    "\u2581her": 902,
    "\u2581_": 903,
    "\u2581\u00e9": 904,
    "atch": 905,
    "fter": 906,
    "\u2581cre": 907,
    "lock": 908,
    "tring": 909,
    "\u2581This": 910,
    "ze": 911,
    "ado": 912,
    "ull": 913,
    "ger": 914,
    "be": 915,
    "\u2581other": 916,
    "\u2581Tags": 917,
    "ution": 918,
    "ict": 919,
    "\u2581how": 920,
    "\u2581x": 921,
    "\u2581Se": 922,
    "\u2581che": 923,
    "cript": 924,
    "\u2581just": 925,
    "\u2581pos": 926,
    "ange": 927,
    "ific": 928,
    "ree": 929,
    "}}": 930,
    "\u2581time": 931,
    "app": 932,
    "\u043d\u044b": 933,
    "\u2581file": 934,
    "ark": 935,
    "ical": 936,
    "\u2581first": 937,
    "\u2581int": 938,
    "\u2581\u0412": 939,
    "\u2581He": 940,
    "ta": 941,
    "ument": 942,
    "ors": 943,
    "lement": 944,
    "rac": 945,
    "\u2581ag": 946,
    "\u2581does": 947,
    "yn": 948,
    "read": 949,
    "ual": 950,
    "\u2581Le": 951,
    "ys": 952,
    "\u2581em": 953,
    "\u2581num": 954,
    "vel": 955,
    "\u0434\u0438": 956,
    "over": 957,
    "\u2581dif": 958,
    "ethod": 959,
    "\u2581If": 960,
    "\u2581spe": 961,
    "ym": 962,
    "\u2581them": 963,
    "\u2581into": 964,
    "\u2581\u2581\u2581\u2581\u2581\u2581\u2581\u2581\u2581\u2581": 965,
    "\u2581les": 966,
    "\u2581its": 967,
    "ese": 968,
    "ield": 969,
    "\u2581public": 970,
    "\u2581\u041f": 971,
    "\u2581den": 972,
    "ystem": 973,
    "of": 974,
    "\u2581over": 975,
    "->": 976,
    "\u2581fil": 977,
    "name": 978,
    "inal": 979,
    "\u2581il": 980,
    "ample": 981,
    "\u2581way": 982,
    "ica": 983,
    "\u0432\u043e": 984,
    "cess": 985,
    "itt": 986,
    "uch": 987,
    "\u2581where": 988,
    "\u043c\u0438": 989,
    "org": 990,
    "https": 991,
    "\u2581vo": 992,
    "ient": 993,
    "ove": 994,
    "\u2581value": 995,
    "eng": 996,
    "\u2581La": 997,
    "^{": 998,
    "ref": 999,
    "ied": 1000,
    "ER": 1001,
    "\u2581stat": 1002,
    "fig": 1003,
    "me": 1004,
    "\u2581von": 1005,
    "\u2581inter": 1006,
    "roid": 1007,
    "ater": 1008,
    "\u2581their": 1009,
    "\u2581bet": 1010,
    "\u2581ein": 1011,
    "}\\": 1012,
    "\">": 1013,
    "\u2581sub": 1014,
    "\u2581op": 1015,
    "\u2581don": 1016,
    "ty": 1017,
    "\u2581try": 1018,
    "\u2581Pro": 1019,
    "\u2581tra": 1020,
    "\u2581same": 1021,
    "ep": 1022,
    "\u2581two": 1023,
    "\u2581name": 1024,
    "old": 1025,
    "let": 1026,
    "\u2581sim": 1027,
    "sp": 1028,
    "\u2581av": 1029,
    "bre": 1030,
    "blem": 1031,
    "ey": 1032,
    "\u2581could": 1033,
    "\u2581cor": 1034,
    "\u2581acc": 1035,
    "ays": 1036,
    "cre": 1037,
    "urr": 1038,
    "si": 1039,
    "\u2581const": 1040,
    "ues": 1041,
    "}$": 1042,
    "View": 1043,
    "\u2581act": 1044,
    "\u2581bo": 1045,
    "\u2581\u043a\u043e": 1046,
    "\u2581som": 1047,
    "\u2581about": 1048,
    "land": 1049,
    "mer": 1050,
    "\u2581list": 1051,
    "cal": 1052,
    "\u2581import": 1053,
    "col": 1054,
    "\u2581na": 1055,
    "na": 1056,
    "::": 1057,
    "\u2581who": 1058,
    "\u2581error": 1059,
    "\u2581X": 1060,
    "ator": 1061,
    "ext": 1062,
    "\u2581been": 1063,
    "\u00e9r": 1064,
    "\u2581run": 1065,
    "pos": 1066,
    "\u2581cl": 1067,
    "**": 1068,
    "\u2581\u041a": 1069,
    "ular": 1070,
    "ause": 1071,
    "\u2581reg": 1072,
    "\u2581know": 1073,
    "\u2581see": 1074,
    "\u2581him": 1075,
    "ning": 1076,
    "\u2581\u0437\u0430": 1077,
    "ates": 1078,
    "fore": 1079,
    "ions": 1080,
    "\u2581hel": 1081,
    "ute": 1082,
    "\u2581rem": 1083,
    "\u2581\u0433\u043e": 1084,
    "\u2581Mar": 1085,
    "\u0440\u0443": 1086,
    "vice": 1087,
    "irect": 1088,
    "ner": 1089,
    "\u2581under": 1090,
    "rib": 1091,
    "hr": 1092,
    "\u0447\u0435": 1093,
    "\u2581As": 1094,
    "\u2581end": 1095,
    "ember": 1096,
    "\u2581\u0430": 1097,
    "\u2581att": 1098,
    "ina": 1099,
    "son": 1100,
    "\u2581follow": 1101,
    "\u2581Sch": 1102,
    "pect": 1103,
    "\u2581rel": 1104,
    "\u2581So": 1105,
    "\u2581look": 1106,
    "abel": 1107,
    "\u2581problem": 1108,
    "\u2581van": 1109,
    "strong": 1110,
    "co": 1111,
    "pon": 1112,
    "ca": 1113,
    "ada": 1114,
    "\":": 1115,
    "cond": 1116,
    "amb": 1117,
    "},": 1118,
    "quest": 1119,
    "\u2581aut": 1120,
    "\u2581result": 1121,
    "\u2581may": 1122,
    "Re": 1123,
    "http": 1124,
    "):": 1125,
    "\u2581And": 1126,
    "red": 1127,
    "\u2581How": 1128,
    "po": 1129,
    "\u0441\u043a\u043e": 1130,
    "att": 1131,
    "oup": 1132,
    "ced": 1133,
    "\u2581type": 1134,
    "\u2581than": 1135,
    "\u2581cons": 1136,
    "uf": 1137,
    "\u0446\u0438": 1138,
    "\u2581question": 1139,
    "raph": 1140,
    "igh": 1141,
    "\u2581\u041c": 1142,
    "\u2581htt": 1143,
    "ins": 1144,
    "den": 1145,
    "\u2581da": 1146,
    "\u2581ver": 1147,
    "oh": 1148,
    "\u2581=>": 1149,
    "riv": 1150,
    "ude": 1151,
    "\u2581For": 1152,
    "\u2581ra": 1153,
    "frac": 1154,
    "\u043c\u0430": 1155,
    "\u2581after": 1156,
    "}{": 1157,
    "\u2581method": 1158,
    "\")": 1159,
    "amp": 1160,
    "ash": 1161,
    "\u2581rec": 1162,
    "\u2581differ": 1163,
    "ON": 1164,
    "ax": 1165,
    "ament": 1166,
    "ource": 1167,
    "Con": 1168,
    "its": 1169,
    "Name": 1170,
    "man": 1171,
    "\u2581bec": 1172,
    "che": 1173,
    "\u2581En": 1174,
    "aj": 1175,
    "\u2581gener": 1176,
    "IN": 1177,
    "\u2581id": 1178,
    "ages": 1179,
    "\u2581loc": 1180,
    "fo": 1181,
    "br": 1182,
    "\u2581she": 1183,
    "Pro": 1184,
    "\u2581una": 1185,
    "\u2581\u043a": 1186,
    "eta": 1187,
    "log": 1188,
    "olog": 1189,
    "\u2581sur": 1190,
    "arg": 1191,
    "\u2581--": 1192,
    "kt": 1193,
    "(\\": 1194,
    "min": 1195,
    "\u2581line": 1196,
    "\u2581vari": 1197,
    "\u0441\u044f": 1198,
    "ics": 1199,
    "\u043d\u044f": 1200,
    "very": 1201,
    "add": 1202,
    "\u2581object": 1203,
    "Id": 1204,
    "\u2581But": 1205,
    "\u2581case": 1206,
    "\u2581make": 1207,
    "\u2581cal": 1208,
    "\u2581pass": 1209,
    "\u0441\u044c": 1210,
    "ession": 1211,
    "net": 1212,
    ".\"": 1213,
    "\u2581\u0433": 1214,
    "\u00e4r": 1215,
    "\u0434\u0435": 1216,
    "no": 1217,
    "ating": 1218,
    "ato": 1219,
    "line": 1220,
    "\u0432\u0438": 1221,
    "\u2581Ex": 1222,
    "\u2581ass": 1223,
    "\u2581vers": 1224,
    "\u043b\u044f": 1225,
    "\u2581ed": 1226,
    "umn": 1227,
    "other": 1228,
    "\u0441\u0442\u0430": 1229,
    "ative": 1230,
    "String": 1231,
    "\u2581los": 1232,
    "wn": 1233,
    "\u2581answer": 1234,
    "\u2581let": 1235,
    "\u2581pe": 1236,
    "ents": 1237,
    "\u2581fe": 1238,
    "ince": 1239,
    "ni": 1240,
    "ider": 1241,
    "ows": 1242,
    "\u2581test": 1243,
    "\u2581here": 1244,
    "roll": 1245,
    "\u2581call": 1246,
    "ruct": 1247,
    "\u2581pol": 1248,
    "ait": 1249,
    "\u2581back": 1250,
    "ho": 1251,
    "Ex": 1252,
    "ress": 1253,
    "ST": 1254,
    "ried": 1255,
    "date": 1256,
    "\u0435\u0442": 1257,
    "\u2581did": 1258,
    "ting": 1259,
    "\u2581El": 1260,
    "\u2581dem": 1261,
    ")$": 1262,
    "\u043e\u0432\u0430": 1263,
    "urrent": 1264,
    "lace": 1265,
    "right": 1266,
    "ren": 1267,
    "\u043f\u043e": 1268,
    "\u2581each": 1269,
    "cy": 1270,
    "block": 1271,
    "data": 1272,
    "\u2581%": 1273,
    "\u2581ac": 1274,
    "\u2581==": 1275,
    "\u00fcr": 1276,
    "\u2581por": 1277,
    "ask": 1278,
    "arch": 1279,
    "ames": 1280,
    "\u2581Con": 1281,
    "\u0447\u0430": 1282,
    "\u2581off": 1283,
    "\u2581find": 1284,
    "cont": 1285,
    "\u2581now": 1286,
    "work": 1287,
    "ational": 1288,
    "dd": 1289,
    "ci\u00f3n": 1290,
    "\u2581\u0410": 1291,
    "ault": 1292,
    "List": 1293,
    "\u2581ext": 1294,
    "urs": 1295,
    "ake": 1296,
    "ule": 1297,
    "\u2581point": 1298,
    "AT": 1299,
    "aut": 1300,
    "\u2581trans": 1301,
    "\u2581co": 1302,
    "\u2581read": 1303,
    "\u2581used": 1304,
    "\u0441\u043a\u0438": 1305,
    "ari": 1306,
    "LE": 1307,
    "eter": 1308,
    "oun": 1309,
    "ever": 1310,
    "self": 1311,
    "ined": 1312,
    "idth": 1313,
    "ux": 1314,
    "js": 1315,
    "\u2581such": 1316,
    "\u2581Is": 1317,
    "\u00e9e": 1318,
    "ful": 1319,
    "\u2581dist": 1320,
    "\u2581bu": 1321,
    "itemize": 1322,
    "Cont": 1323,
    "je": 1324,
    "\u0441\u0438": 1325,
    "\u2581prov": 1326,
    "bb": 1327,
    "ward": 1328,
    "esent": 1329,
    "erson": 1330,
    "anks": 1331,
    "wh": 1332,
    "not": 1333,
    "\u2581We": 1334,
    "ka": 1335,
    "rop": 1336,
    "atur": 1337,
    "als": 1338,
    "\u2581bel": 1339,
    "\u00f6r": 1340,
    "fr": 1341,
    "\u2581example": 1342,
    "\u2581incl": 1343,
    "amil": 1344,
    "\u2581\u0440\u0430": 1345,
    "\u2581\u201c": 1346,
    "\u2581string": 1347,
    "\u2581think": 1348,
    "Th": 1349,
    "\u2581tem": 1350,
    "ave": 1351,
    "\u2581Fran": 1352,
    "\u2581number": 1353,
    "\u2581si": 1354,
    "imes": 1355,
    "tem": 1356,
    "my": 1357,
    "ler": 1358,
    "load": 1359,
    "==": 1360,
    "\u2581hand": 1361,
    "za": 1362,
    "\u2581because": 1363,
    "\u2581sch": 1364,
    "vo": 1365,
    "this": 1366,
    "ID": 1367,
    "\u00e3o": 1368,
    "\u2581start": 1369,
    "\u2581war": 1370,
    "\u2581help": 1371,
    "ts": 1372,
    "\u2581char": 1373,
    "\u2581ph": 1374,
    "\u2581min": 1375,
    "til": 1376,
    "rite": 1377,
    "--------": 1378,
    "els": 1379,
    "\u2581mit": 1380,
    "edia": 1381,
    "\u043a\u0443": 1382,
    "\u2581Sh": 1383,
    "any": 1384,
    "];": 1385,
    "\u2581\u0411": 1386,
    "ique": 1387,
    "da": 1388,
    "ef": 1389,
    "dex": 1390,
    "\u2581produ": 1391,
    "\u2581\u041d": 1392,
    "gram": 1393,
    "\u2581Or": 1394,
    "\u2581gre": 1395,
    "quote": 1396,
    "leg": 1397,
    "orn": 1398,
    "\u2581ind": 1399,
    "\u2581post": 1400,
    "\u2581dep": 1401,
    "],": 1402,
    "vi": 1403,
    "\u2581user": 1404,
    "\u2581>": 1405,
    "lick": 1406,
    "\u2581very": 1407,
    "ething": 1408,
    "\u2581array": 1409,
    "\u2581gu": 1410,
    "\u2581dur": 1411,
    "`.": 1412,
    "\u0442\u044c": 1413,
    "lication": 1414,
    "\u0441\u0442\u0438": 1415,
    "ek": 1416,
    "ico": 1417,
    "\u2581dat": 1418,
    "\u043e\u0440": 1419,
    "html": 1420,
    "ione": 1421,
    "\u2581different": 1422,
    "\u2581check": 1423,
    "\u2581fr": 1424,
    "\u2581Er": 1425,
    "\u2581text": 1426,
    "\u043d\u0456": 1427,
    "icht": 1428,
    "stack": 1429,
    "EN": 1430,
    "rag": 1431,
    "\u2581every": 1432,
    "Ar": 1433,
    "\u2581before": 1434,
    "alse": 1435,
    "\u2581fin": 1436,
    "\u2581d\u00e9": 1437,
    "\u2581these": 1438,
    "\u2581det": 1439,
    "Val": 1440,
    "ception": 1441,
    "\u2581android": 1442,
    "blockquote": 1443,
    "\u2581je": 1444,
    "file": 1445,
    "ats": 1446,
    "\u2581\u0434\u043e": 1447,
    "essage": 1448,
    "\u2581again": 1449,
    "aw": 1450,
    "Ch": 1451,
    "ween": 1452,
    "\u2581\u0414": 1453,
    "for": 1454,
    "cial": 1455,
    "play": 1456,
    "pre": 1457,
    "ida": 1458,
    "\u2581Par": 1459,
    "ny": 1460,
    "ract": 1461,
    "\u2581supp": 1462,
    "ased": 1463,
    "lection": 1464,
    "\u2581dans": 1465,
    "air": 1466,
    "rol": 1467,
    "\u2581thr": 1468,
    "Data": 1469,
    "lich": 1470,
    "\u2581\u043f\u0440\u043e": 1471,
    "\u2581long": 1472,
    "\u2581second": 1473,
    "ually": 1474,
    "ines": 1475,
    "\u2581found": 1476,
    "ength": 1477,
    "yp": 1478,
    "ead": 1479,
    "\u2581log": 1480,
    "ui": 1481,
    "new": 1482,
    "\u2581\u0420": 1483,
    "go": 1484,
    "aus": 1485,
    "ody": 1486,
    "\u2581son": 1487,
    "\u043c\u0435": 1488,
    "ero": 1489,
    "ved": 1490,
    "sub": 1491,
    "\u2581right": 1492,
    "view": 1493,
    "\u2581following": 1494,
    "')": 1495,
    "\");": 1496,
    "\u2581said": 1497,
    "\u0436\u0435": 1498,
    "\u0447\u0438": 1499,
    "\u0442\u0443": 1500,
    "ott": 1501,
    "\u0441\u0435": 1502,
    "ars": 1503,
    "$.": 1504,
    "gg": 1505,
    "\u2581br": 1506,
    "ool": 1507,
    "yle": 1508,
    "use": 1509,
    "\u2581show": 1510,
    "lease": 1511,
    "cia": 1512,
    "\u2581direct": 1513,
    "doc": 1514,
    "\u0430\u0440": 1515,
    "ms": 1516,
    "\u2581giv": 1517,
    "\u2581exp": 1518,
    "ql": 1519,
    "\u0434\u0443": 1520,
    "\u0432\u0435": 1521,
    "\u2581Be": 1522,
    "Com": 1523,
    "iter": 1524,
    "RE": 1525,
    "mp": 1526,
    "men": 1527,
    "\u2581Ro": 1528,
    "MA": 1529,
    "\u2581Col": 1530,
    "ister": 1531,
    "\u2581well": 1532,
    "\u2581</": 1533,
    "ayout": 1534,
    "ature": 1535,
    "ivers": 1536,
    "zy": 1537,
    "\u2581\u043d\u0435": 1538,
    "\u2581met": 1539,
    "une": 1540,
    "yth": 1541,
    "Type": 1542,
    "\u2581element": 1543,
    "\u2581link": 1544,
    "mod": 1545,
    "\u2581between": 1546,
    "cept": 1547,
    "quire": 1548,
    "\u2581through": 1549,
    "\u2581while": 1550,
    "\u2581On": 1551,
    "the": 1552,
    "\u00eda": 1553,
    "\u2581something": 1554,
    "vol": 1555,
    "\u2581most": 1556,
    "sc": 1557,
    "uss": 1558,
    "\u2581car": 1559,
    "\u2581sm": 1560,
    "\u2581\u0440\u043e": 1561,
    "ano": 1562,
    "left": 1563,
    "va": 1564,
    "\u2581true": 1565,
    "($": 1566,
    "ems": 1567,
    "\u2581much": 1568,
    "\u00e1s": 1569,
    "\u2581New": 1570,
    "\u2581proper": 1571,
    "era": 1572,
    "ited": 1573,
    "\u2581doc": 1574,
    "ices": 1575,
    "The": 1576,
    "\u2581?": 1577,
    "\u0441\u0442\u043e": 1578,
    "fl": 1579,
    "\u2581spec": 1580,
    "ender": 1581,
    "way": 1582,
    "\u2581self": 1583,
    "\u2581even": 1584,
    "\u0456\u0432": 1585,
    "\u2581\u0441\u0435": 1586,
    "\u043d\u0438\u044f": 1587,
    "\u2581Pr": 1588,
    "\u2581ke": 1589,
    "emb": 1590,
    "\u2581table": 1591,
    "\u2581equ": 1592,
    "lient": 1593,
    "td": 1594,
    "part": 1595,
    "\u2581print": 1596,
    "\u2581une": 1597,
    "ify": 1598,
    "\u2581->": 1599,
    "ene": 1600,
    "\u2581mon": 1601,
    "\u2581dec": 1602,
    "\u2581still": 1603,
    "\u2581\u043e\u0431": 1604,
    "\u2581Tr": 1605,
    "\u2581\u0444": 1606,
    "ife": 1607,
    "ism": 1608,
    "by": 1609,
    "raw": 1610,
    "ior": 1611,
    "\u2581med": 1612,
    "orld": 1613,
    "\u2581comple": 1614,
    "ww": 1615,
    "\u2581art": 1616,
    "ron": 1617,
    "\u2581\u0413": 1618,
    "\u2581My": 1619,
    "\u2581als": 1620,
    "rect": 1621,
    "\u2581auf": 1622,
    "\u2581down": 1623,
    "ather": 1624,
    "Col": 1625,
    "Text": 1626,
    "back": 1627,
    "$,": 1628,
    "\u2581year": 1629,
    "\u043c\u043e": 1630,
    "pi": 1631,
    "\u2581Gr": 1632,
    "ream": 1633,
    "\u2581rep": 1634,
    "bf": 1635,
    "www": 1636,
    "\u2581wur": 1637,
    "\u2581org": 1638,
    "inter": 1639,
    "\u2581Die": 1640,
    "\u2581being": 1641,
    "\".": 1642,
    "label": 1643,
    "\u2581cent": 1644,
    "java": 1645,
    "bar": 1646,
    "ante": 1647,
    "ana": 1648,
    "__": 1649,
    "\u2581solution": 1650,
    "\u2581\u041e": 1651,
    "\u2581fl": 1652,
    "\u2581create": 1653,
    "ici": 1654,
    "ste": 1655,
    "ython": 1656,
    "unt": 1657,
    "ason": 1658,
    "ference": 1659,
    "SE": 1660,
    "\u2581non": 1661,
    "ane": 1662,
    "\u2581ins": 1663,
    "ader": 1664,
    "_{\\": 1665,
    "Res": 1666,
    "\u2581main": 1667,
    "\u043f\u0438": 1668,
    "\u2581\u2581\u2581\u2581\u2581\u2581\u2581\u2581\u2581\u2581\u2581\u2581\u2581\u2581": 1669,
    "\u2581There": 1670,
    "\u2581pour": 1671,
    "RO": 1672,
    "`,": 1673,
    "lish": 1674,
    "bject": 1675,
    "ccess": 1676,
    "\u2581orig": 1677,
    "\u2581\u2581\u2581": 1678,
    "ischen": 1679,
    "ower": 1680,
    "\u2581het": 1681,
    "uc": 1682,
    "\u2581else": 1683,
    "\u00bb.": 1684,
    "\u2581\u043e\u0442": 1685,
    "equ": 1686,
    "sible": 1687,
    "test": 1688,
    "stand": 1689,
    "\u00e9n": 1690,
    "ets": 1691,
    "GE": 1692,
    "ident": 1693,
    "\u2581\u0435": 1694,
    "\u2581\u043f\u0440\u0438": 1695,
    ".,": 1696,
    "\u2581das": 1697,
    "ock": 1698,
    ",\"": 1699,
    "\u2581vol": 1700,
    "\u2581fo": 1701,
    "\u2581para": 1702,
    "\u2581\u0422": 1703,
    "\u2581Car": 1704,
    "ral": 1705,
    "\u2581Sp": 1706,
    "var": 1707,
    "\u2581play": 1708,
    "ouse": 1709,
    "\u2581\u0442\u0430": 1710,
    "ically": 1711,
    "\u2581contain": 1712,
    "ponse": 1713,
    "\u2581String": 1714,
    "\u00e1n": 1715,
    "\u2581both": 1716,
    "ken": 1717,
    "AR": 1718,
    "\u0435\u0440\u0435": 1719,
    "\u2581Il": 1720,
    "\u2581iss": 1721,
    "\u2581open": 1722,
    "\u2581)": 1723,
    "\u2581What": 1724,
    "fe": 1725,
    "rivate": 1726,
    "reg": 1727,
    "\u2581without": 1728,
    "\u2581zu": 1729,
    "vis": 1730,
    "flow": 1731,
    "\u2581http": 1732,
    "abase": 1733,
    "\u2581word": 1734,
    "\u2581change": 1735,
    "\u2581works": 1736,
    "\u2581ge": 1737,
    "\u2581!": 1738,
    "\u2581een": 1739,
    "itle": 1740,
    "\u2581event": 1741,
    "word": 1742,
    "ando": 1743,
    "SB": 1744,
    "rem": 1745,
    "\u2581field": 1746,
    "ving": 1747,
    "Ser": 1748,
    "\u2581our": 1749,
    "\u2581qui": 1750,
    "\u2581oper": 1751,
    "\u2581ist": 1752,
    "def": 1753,
    "\u2581made": 1754,
    "\u043d\u0438\u0435": 1755,
    "px": 1756,
    "\u2581men": 1757,
    "rm": 1758,
    "ais": 1759,
    "cent": 1760,
    "list": 1761,
    "To": 1762,
    "\u2581To": 1763,
    "ja": 1764,
    "vert": 1765,
    "\u2581mar": 1766,
    "value": 1767,
    "\u2581\u201e": 1768,
    "\";": 1769,
    "\u2581aus": 1770,
    "\u2581Br": 1771,
    "ole": 1772,
    "\u2581mult": 1773,
    "ought": 1774,
    "\u2581mat": 1775,
    "\u2581view": 1776,
    "fil": 1777,
    "\u2581\u0441\u043e": 1778,
    "\u0433\u0430": 1779,
    "\u2581void": 1780,
    "\u2581good": 1781,
    "\u0431\u043e": 1782,
    "CT": 1783,
    "\u2581many": 1784,
    "ben": 1785,
    "\u2581\u0432\u043e": 1786,
    "\u2581\u043a\u0430": 1787,
    "\u2581system": 1788,
    "ino": 1789,
    "\u2581another": 1790,
    "\u2581rest": 1791,
    "user": 1792,
    "ility": 1793,
    "ai": 1794,
    "\u2581might": 1795,
    "ustom": 1796,
    "\u2581order": 1797,
    "\u2581Ver": 1798,
    "SS": 1799,
    "})": 1800,
    "\u2581eff": 1801,
    "\u0434\u043e": 1802,
    "ett": 1803,
    "\u2581sign": 1804,
    "\u043c\u0443": 1805,
    "IT": 1806,
    "string": 1807,
    "elle": 1808,
    "\u2581sing": 1809,
    "cul": 1810,
    "\u2581trying": 1811,
    "\u2581beg": 1812,
    "\u2581page": 1813,
    "\u0445\u043e": 1814,
    "\u2581Can": 1815,
    "\u2581Ser": 1816,
    "++": 1817,
    "\u2581must": 1818,
    "\u2581values": 1819,
    "\u2581key": 1820,
    "ible": 1821,
    "].": 1822,
    "ird": 1823,
    "\u2581program": 1824,
    "roller": 1825,
    "\u2581conne": 1826,
    "\u2581say": 1827,
    "\u2581param": 1828,
    "ache": 1829,
    "velop": 1830,
    "\u2581select": 1831,
    "\u2581famil": 1832,
    "\u2581last": 1833,
    "\u2581Thanks": 1834,
    "\u2581pop": 1835,
    "}.": 1836,
    "eq": 1837,
    "\u2581doesn": 1838,
    "['": 1839,
    "\u2581term": 1840,
    "\u2581r\u00e9": 1841,
    "\u2581document": 1842,
    "\u043f\u0430": 1843,
    "\u043b\u0443": 1844,
    "ateg": 1845,
    ".)": 1846,
    "ling": 1847,
    "ional": 1848,
    "ables": 1849,
    "\u2581tak": 1850,
    "utton": 1851,
    "\u2581arg": 1852,
    "type": 1853,
    "\u2581sure": 1854,
    "\u2581real": 1855,
    "\u2581web": 1856,
    "\u2581current": 1857,
    "\u2581Pl": 1858,
    "cho": 1859,
    "ments": 1860,
    "\u2581Joh": 1861,
    "ots": 1862,
    "\u2581exist": 1863,
    "\u043d\u0443": 1864,
    "\u2581f\u00fcr": 1865,
    "\u2581\u0438\u0437": 1866,
    "do": 1867,
    "\u043d\u043e\u0433\u043e": 1868,
    "\u2581las": 1869,
    "\u2581null": 1870,
    "\u2581inform": 1871,
    "\u2581\u041b": 1872,
    "\u2581version": 1873,
    "\u2581chang": 1874,
    "ager": 1875,
    "\u2581Comm": 1876,
    "\u043b\u0456": 1877,
    "ush": 1878,
    "\u2581Ge": 1879,
    "\u2581high": 1880,
    "\u2581input": 1881,
    "ogle": 1882,
    "ros": 1883,
    "box": 1884,
    "gen": 1885,
    "\u2581ste": 1886,
    "\u2581local": 1887,
    "Im": 1888,
    "\u2581process": 1889,
    "ternal": 1890,
    "ized": 1891,
    "\u0433\u0438": 1892,
    "\u00e9t": 1893,
    "\u2581Ind": 1894,
    "\u2581och": 1895,
    "lt": 1896,
    "\u2581column": 1897,
    "\u2581tried": 1898,
    "\u2581command": 1899,
    "\u2581best": 1900,
    "aster": 1901,
    "\u0437\u0430": 1902,
    "\u2581prim": 1903,
    "\u2581model": 1904,
    "\u2581\u0456": 1905,
    "\u2581those": 1906,
    "ities": 1907,
    "\u00e8re": 1908,
    "\u2581\u0440\u0435": 1909,
    "\u0458\u0435": 1910,
    "\u0448\u0438": 1911,
    "ques": 1912,
    "\u2581Am": 1913,
    "\u2581own": 1914,
    "lin": 1915,
    "\u0437\u0438": 1916,
    "Value": 1917,
    "thing": 1918,
    "\u2581,": 1919,
    "\u2581Te": 1920,
    "\u2581stud": 1921,
    "\u2581um": 1922,
    "\u2581server": 1923,
    "ille": 1924,
    "\u2581put": 1925,
    "ativ": 1926,
    "gy": 1927,
    "\u043e\u0432\u0438": 1928,
    "raf": 1929,
    "\u043e\u0432\u043e": 1930,
    "\u2581wurde": 1931,
    "\u2581When": 1932,
    "\u2581div": 1933,
    "ants": 1934,
    "\u2581ter": 1935,
    "\u2581partic": 1936,
    "\u2581\u0442": 1937,
    "\u2581Do": 1938,
    "\u2581No": 1939,
    "sert": 1940,
    "ido": 1941,
    "mathcal": 1942,
    "ade": 1943,
    "\u2581II": 1944,
    "lear": 1945,
    "ograph": 1946,
    "ense": 1947,
    "\u2581row": 1948,
    "num": 1949,
    "\u2581possible": 1950,
    "\u2581since": 1951,
    "\u2581Bo": 1952,
    "ctions": 1953,
    "\u2581Im": 1954,
    "OR": 1955,
    "\u0446\u0456": 1956,
    "\u2581ide": 1957,
    "map": 1958,
    "\u2581correct": 1959,
    "ves": 1960,
    "php": 1961,
    "\u2581output": 1962,
    "\u2581Ph": 1963,
    "AL": 1964,
    "ared": 1965,
    "\\\\": 1966,
    "\u2581image": 1967,
    "esch": 1968,
    "\u0436\u0438": 1969,
    "\u2581conf": 1970,
    "por": 1971,
    "query": 1972,
    "ures": 1973,
    "ium": 1974,
    "ends": 1975,
    "\u2581Ab": 1976,
    "SBN": 1977,
    "\u0456\u0434": 1978,
    "ether": 1979,
    "ptions": 1980,
    "itu": 1981,
    "lib": 1982,
    "ns": 1983,
    "ki": 1984,
    "\u2581working": 1985,
    "\u2581como": 1986,
    "\u2581Then": 1987,
    "ML": 1988,
    "key": 1989,
    "class": 1990,
    "ople": 1991,
    "ittle": 1992,
    "\u2581match": 1993,
    "ways": 1994,
    "mathbb": 1995,
    "\u2581require": 1996,
    "alt": 1997,
    "\u2581vis": 1998,
    "\u2581bl": 1999,
    "\u2581called": 2000,
    "Item": 2001,
    "ura": 2002,
    "vec": 2003,
    "eme": 2004,
    "\u2581della": 2005,
    "embre": 2006,
    "urg": 2007,
    "Se": 2008,
    "\u2581request": 2009,
    "ische": 2010,
    "\u2581port": 2011,
    "\u2581instead": 2012,
    "=\\": 2013,
    "\u2581\u0423": 2014,
    "hor": 2015,
    "ente": 2016,
    "ume": 2017,
    "erd": 2018,
    "\u0441\u0430": 2019,
    "\u2581why": 2020,
    "rist": 2021,
    "\u2581person": 2022,
    "\u2581...": 2023,
    "\u2581private": 2024,
    "\u2581tot": 2025,
    "pha": 2026,
    "ift": 2027,
    "ita": 2028,
    "loc": 2029,
    "\u2581old": 2030,
    "\u043e\u043d": 2031,
    "\u2581nel": 2032,
    "']": 2033,
    "ti": 2034,
    "iet": 2035,
    "cite": 2036,
    "plement": 2037,
    "\u2581above": 2038,
    "ks": 2039,
    "ready": 2040,
    "\u2581come": 2041,
    "section": 2042,
    "\u2581Pol": 2043,
    "\u2581writ": 2044,
    "\u2581https": 2045,
    "\u2581$$": 2046,
    "\u2581\u00bb": 2047,
    "\u2581build": 2048,
    "ito": 2049,
    "\u2581consider": 2050,
    "aft": 2051,
    "App": 2052,
    ",\\": 2053,
    "indows": 2054,
    "comm": 2055,
    "\u2581;": 2056,
    "ground": 2057,
    "\u2581place": 2058,
    "By": 2059,
    "\u2581project": 2060,
    "Object": 2061,
    "\u2581repr": 2062,
    "ences": 2063,
    "indow": 2064,
    "zt": 2065,
    "\u2581files": 2066,
    "cz": 2067,
    "ivity": 2068,
    "\u2581init": 2069,
    "\u2581prob": 2070,
    "\u2581sk": 2071,
    "orth": 2072,
    "iment": 2073,
    "ouble": 2074,
    "atal": 2075,
    "irc": 2076,
    "\u2581\u00e8": 2077,
    "\u2581bre": 2078,
    "ista": 2079,
    "input": 2080,
    "\u2581\u0418": 2081,
    "\u043d\u043e\u0439": 2082,
    "sum": 2083,
    "path": 2084,
    "\u2581cour": 2085,
    "\u2581too": 2086,
    "\u2581Ad": 2087,
    "\u2581Gu": 2088,
    "\u2581false": 2089,
    "\u2581fun": 2090,
    "\u2581\u0441\u0442": 2091,
    "ood": 2092,
    "\u00e8s": 2093,
    "\u2581enc": 2094,
    "bol": 2095,
    "rl": 2096,
    "arget": 2097,
    "order": 2098,
    "\u2581mean": 2099,
    "\u043f\u0435": 2100,
    "igen": 2101,
    "\u2581\u043f\u0440\u0435": 2102,
    "width": 2103,
    ";\r": 2104,
    "itor": 2105,
    "\u2581state": 2106,
    "\u2581great": 2107,
    "enn": 2108,
    "bin": 2109,
    "Er": 2110,
    "Mod": 2111,
    "oz": 2112,
    "\u2581won": 2113,
    "\u2581fact": 2114,
    "\u2581java": 2115,
    "\u2581Univers": 2116,
    "\u2581cap": 2117,
    "istor": 2118,
    "}(": 2119,
    "ku": 2120,
    "ither": 2121,
    "ales": 2122,
    "\u2581ou": 2123,
    "ross": 2124,
    "\u2581take": 2125,
    "rix": 2126,
    "lob": 2127,
    "\u2581eine": 2128,
    "ases": 2129,
    "\u2581access": 2130,
    "it\u00e9": 2131,
    "istr": 2132,
    "ization": 2133,
    "\u2581appro": 2134,
    "ball": 2135,
    "\u2581mak": 2136,
    "}^": 2137,
    "\u2581Cons": 2138,
    "press": 2139,
    "serv": 2140,
    "().": 2141,
    "af": 2142,
    "\u2581ref": 2143,
    ")\\": 2144,
    "\u2581contin": 2145,
    "su": 2146,
    "iver": 2147,
    "\u2581cond": 2148,
    "\u2581expect": 2149,
    "\u2581charact": 2150,
    "bert": 2151,
    "elt": 2152,
    "ters": 2153,
    "script": 2154,
    "\u2581Ed": 2155,
    "apt": 2156,
    "');": 2157,
    "print": 2158,
    "\u2581size": 2159,
    "\u2581sich": 2160,
    "face": 2161,
    "enden": 2162,
    "\u2581Amer": 2163,
    "ified": 2164,
    "\u00f3w": 2165,
    "\u2581Su": 2166,
    "tes": 2167,
    "med": 2168,
    "\u2581Reg": 2169,
    "sole": 2170,
    "\u2581includ": 2171,
    "ini": 2172,
    "inci": 2173,
    "\u2581pla": 2174,
    "\u2581left": 2175,
    "df": 2176,
    "Par": 2177,
    "\u2581All": 2178,
    "\u2581occ": 2179,
    "\u2581At": 2180,
    "\u2581cr": 2181,
    "Qu": 2182,
    "\u2581given": 2183,
    "\u2581System": 2184,
    "ican": 2185,
    "\u2581final": 2186,
    "itions": 2187,
    "\u2581\u0431\u044b": 2188,
    "\u2581perform": 2189,
    "AN": 2190,
    "\u2581Me": 2191,
    "uro": 2192,
    "\u2581That": 2193,
    "\u0433\u0440\u0430": 2194,
    "\u2581\u041f\u043e": 2195,
    "\u2581\u0432\u0438": 2196,
    "ably": 2197,
    "\u2581present": 2198,
    "duct": 2199,
    "ric": 2200,
    "\u2581Eng": 2201,
    "try": 2202,
    "\u2581lar": 2203,
    "bl": 2204,
    "idd": 2205,
    "\u2581\u00e4r": 2206,
    "ora": 2207,
    "LL": 2208,
    "oss": 2209,
    "\u2581ISBN": 2210,
    "\u2581three": 2211,
    "jo": 2212,
    "n\u00ed": 2213,
    "rc": 2214,
    "\u2581far": 2215,
    "\u2581Not": 2216,
    "\u2581little": 2217,
    "dis": 2218,
    "ati": 2219,
    "function": 2220,
    "\u2581able": 2221,
    "less": 2222,
    "\u0441\u043e": 2223,
    "\u2581path": 2224,
    "\u2581pres": 2225,
    "lose": 2226,
    "PI": 2227,
    "\u2581issue": 2228,
    "ackage": 2229,
    "time": 2230,
    "ige": 2231,
    "ams": 2232,
    "\u2581Cl": 2233,
    "ails": 2234,
    "alk": 2235,
    "ii": 2236,
    "\u0448\u0435": 2237,
    "pen": 2238,
    "QL": 2239,
    "\u2581eas": 2240,
    "RL": 2241,
    "cel": 2242,
    "\u2581sl": 2243,
    "\u2581ask": 2244,
    "\u2581nom": 2245,
    "\u2581top": 2246,
    "ides": 2247,
    "index": 2248,
    "\u00e9m": 2249,
    "\u2581happ": 2250,
    "ox": 2251,
    "cd": 2252,
    "\u2581better": 2253,
    "\u2581load": 2254,
    "ados": 2255,
    "zen": 2256,
    "\u2581ce": 2257,
    "\u2581fa": 2258,
    "\u2581John": 2259,
    "IMA": 2260,
    "\u2581Bar": 2261,
    "overflow": 2262,
    "\u2581\u0434\u0435": 2263,
    "ness": 2264,
    "cer": 2265,
    "\u2581Here": 2266,
    "ret": 2267,
    "\u2581sz": 2268,
    "ambda": 2269,
    "opy": 2270,
    "url": 2271,
    "py": 2272,
    "rt": 2273,
    "\u2581understand": 2274,
    "a\u0142": 2275,
    "her": 2276,
    "##": 2277,
    "\u2581child": 2278,
    "\u2581exec": 2279,
    "\u2581application": 2280,
    "\u2581struct": 2281,
    "\u2581\u044f": 2282,
    "File": 2283,
    "\u2581cert": 2284,
    "ison": 2285,
    "\u2581variable": 2286,
    "DE": 2287,
    "rs": 2288,
    "\u2581really": 2289,
    "Port": 2290,
    "ba": 2291,
    "\u2581Ber": 2292,
    "\u2581inte": 2293,
    "\u2581static": 2294,
    "\u2581config": 2295,
    "\u2581She": 2296,
    "estions": 2297,
    "\u2581plus": 2298,
    "\u2581hab": 2299,
    "ope": 2300,
    "\u2581mus": 2301,
    "\u2581count": 2302,
    "ME": 2303,
    "\u2581support": 2304,
    "\u2581people": 2305,
    "\u2581beh": 2306,
    "\u2581already": 2307,
    "Tr": 2308,
    "\u2581done": 2309,
    "dem": 2310,
    "size": 2311,
    "alpha": 2312,
    "\u2581disc": 2313,
    "])": 2314,
    "\u2581Man": 2315,
    "\u2581mil": 2316,
    "\u2581stand": 2317,
    "\u2581group": 2318,
    "\u2581small": 2319,
    "\u2581mag": 2320,
    "\u0441\u0442\u044c": 2321,
    "\u2581default": 2322,
    "\u2581single": 2323,
    "link": 2324,
    "clude": 2325,
    "\u2581ear": 2326,
    "ilar": 2327,
    "****": 2328,
    "\u2581fix": 2329,
    "ley": 2330,
    "\u2581pas": 2331,
    "\u043d\u0438\u0439": 2332,
    "ission": 2333,
    "\u2581implement": 2334,
    "itch": 2335,
    "\u2581\u0433\u043e\u0434\u0430": 2336,
    "\u2581always": 2337,
    "\u2581Jah": 2338,
    "pring": 2339,
    "\u00e7\u00e3o": 2340,
    "plate": 2341,
    "\u2581descri": 2342,
    "\u2581head": 2343,
    "init": 2344,
    "ograf": 2345,
    "\u2581query": 2346,
    "ived": 2347,
    "\u2581ing": 2348,
    "pty": 2349,
    "ha": 2350,
    "\u2581mov": 2351,
    "\u2581\u044d": 2352,
    "ette": 2353,
    "ily": 2354,
    "\u2581got": 2355,
    "iled": 2356,
    "icro": 2357,
    "\u2581wr": 2358,
    "\u0440\u044f": 2359,
    "\u2581never": 2360,
    "ores": 2361,
    "\u2581bas": 2362,
    "ios": 2363,
    "lack": 2364,
    "aint": 2365,
    "vious": 2366,
    "\u2581give": 2367,
    "idad": 2368,
    "En": 2369,
    "\u043d\u044b\u0439": 2370,
    "table": 2371,
    "\u2581\u041d\u0430": 2372,
    "\u2581pat": 2373,
    "\u0442\u043e\u0440": 2374,
    "angu": 2375,
    "loy": 2376,
    "\u2581seg": 2377,
    "array": 2378,
    "\u2581Fl": 2379,
    "\u2581index": 2380,
    "\u2581sw": 2381,
    "IMAGE": 2382,
    "\u2581km": 2383,
    "\u0431\u0438": 2384,
    "Class": 2385,
    "ena": 2386,
    "\u043c\u0435\u043d": 2387,
    "comp": 2388,
    "atus": 2389,
    "rap": 2390,
    "\u2581List": 2391,
    "Error": 2392,
    "\u2581typ": 2393,
    "\u2581\u043c\u0430": 2394,
    "cs": 2395,
    "':": 2396,
    "ji": 2397,
    "\u2581However": 2398,
    "\u2581\u0442\u0435": 2399,
    "\u2581below": 2400,
    "\u2581App": 2401,
    "\u0449\u0435": 2402,
    "}_": 2403,
    "bum": 2404,
    "vir": 2405,
    "\u00e9es": 2406,
    "\u2581record": 2407,
    "tain": 2408,
    "lem": 2409,
    "ital": 2410,
    "\u2581imp": 2411,
    "ego": 2412,
    "\u2581od": 2413,
    "\u2581rece": 2414,
    "mit": 2415,
    "ffic": 2416,
    "stackoverflow": 2417,
    "ieve": 2418,
    "\u2581\u0417": 2419,
    "\u2581nov": 2420,
    "\u0446\u0435": 2421,
    "\u2581Intern": 2422,
    "bu": 2423,
    "\u2581sugg": 2424,
    "\u2581loop": 2425,
    "ride": 2426,
    "\u2581$(": 2427,
    "\u2581super": 2428,
    "rid": 2429,
    "\u043d\u044b\u0445": 2430,
    "\u2581Per": 2431,
    "\u2581dom": 2432,
    "='": 2433,
    "utsch": 2434,
    "len": 2435,
    "\u2581write": 2436,
    "\u2581inv": 2437,
    "outh": 2438,
    "\u2581Her": 2439,
    "\u2581years": 2440,
    "\u2581original": 2441,
    "ega": 2442,
    "\u2581Ste": 2443,
    "\u2581seems": 2444,
    "\u00e9g": 2445,
    "\u2581next": 2446,
    "eder": 2447,
    "\u2581Ne": 2448,
    "avas": 2449,
    "ification": 2450,
    "Exception": 2451,
    "\u2581Der": 2452,
    "\u2581ve": 2453,
    "atic": 2454,
    "hat": 2455,
    "brary": 2456,
    "return": 2457,
    "urch": 2458,
    "ision": 2459,
    "mi": 2460,
    "oint": 2461,
    "\u2581day": 2462,
    "iction": 2463,
    "\u00e1l": 2464,
    "\u2581\u00e9s": 2465,
    "\u2581though": 2466,
    "action": 2467,
    "\u00edt": 2468,
    "ungen": 2469,
    "ours": 2470,
    "\u2581script": 2471,
    "\u2581information": 2472,
    "\u2581multi": 2473,
    "\u2581\\\\": 2474,
    "ster": 2475,
    "\u043a\u0435": 2476,
    "AC": 2477,
    "cies": 2478,
    "\u2581display": 2479,
    "oman": 2480,
    "Time": 2481,
    "ius": 2482,
    "));": 2483,
    "tre": 2484,
    "\u2581lim": 2485,
    "ately": 2486,
    "\u00e9d": 2487,
    "iste": 2488,
    "\u2581\u0441\u0430": 2489,
    "post": 2490,
    "uel": 2491,
    "img": 2492,
    "\u2581\u0447": 2493,
    "\u0441\u043a\u0430": 2494,
    "eld": 2495,
    "pper": 2496,
    "ula": 2497,
    "\u2581general": 2498,
    "Al": 2499,
    "Form": 2500,
    "\u2581upon": 2501,
    "zo": 2502,
    "amente": 2503,
    "\u2581prom": 2504,
    "\u2581\u00fc": 2505,
    "lex": 2506,
    "\u2581turn": 2507,
    "\u2581\u043c\u0435": 2508,
    "ention": 2509,
    "\u043b\u0435\u043d": 2510,
    "\u2581af": 2511,
    "icle": 2512,
    "\u0441\u0442\u0432": 2513,
    "\u2581Fil": 2514,
    "\u2581\u0424": 2515,
    "avascript": 2516,
    "Man": 2517,
    "ara": 2518,
    "ware": 2519,
    "align": 2520,
    "angle": 2521,
    "\u2581Sc": 2522,
    "unic": 2523,
    "\u2581fran": 2524,
    "Un": 2525,
    "zi": 2526,
    "met": 2527,
    "Add": 2528,
    "\u2581pub": 2529,
    "\u043a\u043e\u0432": 2530,
    "\u2581gen": 2531,
    "\u2581pod": 2532,
    "\u2581sum": 2533,
    "\u2581having": 2534,
    "\u2581avec": 2535,
    "sl": 2536,
    "\u2581fig": 2537,
    "\u2581Res": 2538,
    "Date": 2539,
    "ules": 2540,
    "with": 2541,
    "\u0441\u043a\u0438\u0439": 2542,
    "gu": 2543,
    "ET": 2544,
    "\u2581bro": 2545,
    "rie": 2546,
    "aps": 2547,
    "ending": 2548,
    "mail": 2549,
    "ook": 2550,
    "\u2581success": 2551,
    "berg": 2552,
    "\u2581deb": 2553,
    "elta": 2554,
    "()`": 2555,
    "ential": 2556,
    "frame": 2557,
    "Key": 2558,
    "inn": 2559,
    "\u2581simple": 2560,
    "ival": 2561,
    "\u2581care": 2562,
    "\u2581Web": 2563,
    "\").": 2564,
    "></": 2565,
    "\u2581database": 2566,
    "\u2581Now": 2567,
    "Ind": 2568,
    "\u2581\u043c\u043e": 2569,
    "cht": 2570,
    "ban": 2571,
    "ram": 2572,
    "equation": 2573,
    "ski": 2574,
    "ief": 2575,
    "lim": 2576,
    "Get": 2577,
    "\u2581tre": 2578,
    "aten": 2579,
    "bed": 2580,
    "\u2581Je": 2581,
    "\u2581results": 2582,
    "\u043b\u044e": 2583,
    "\u0442\u0435\u043b\u044c": 2584,
    "db": 2585,
    "\u2581bit": 2586,
    "body": 2587,
    "Array": 2588,
    "mu": 2589,
    "pression": 2590,
    "\u2581\u0441\u0442\u0430": 2591,
    "ony": 2592,
    "iff": 2593,
    "\u2581bar": 2594,
    "\u2581Arch": 2595,
    "bers": 2596,
    "){": 2597,
    "\u2581Mon": 2598,
    "\u2581doing": 2599,
    "\u2581prof": 2600,
    "\u2581install": 2601,
    "\u2581position": 2602,
    "ema": 2603,
    "\u2581});": 2604,
    "Path": 2605,
    "ali": 2606,
    "\u2581&&": 2607,
    "lev": 2608,
    "\u2581cannot": 2609,
    "\u2581May": 2610,
    "inst": 2611,
    "-\\": 2612,
    "\u2581coun": 2613,
    "\u2581ang": 2614,
    "\u2581appear": 2615,
    "cor": 2616,
    "ci\u00f3": 2617,
    "ided": 2618,
    "questions": 2619,
    "atter": 2620,
    "\u2581Pa": 2621,
    "select": 2622,
    "\u2581princi": 2623,
    "Event": 2624,
    "\u2581side": 2625,
    "\u2581mem": 2626,
    "\u2581Jan": 2627,
    "ario": 2628,
    "\u2581within": 2629,
    "\u2581Val": 2630,
    "odes": 2631,
    "iddle": 2632,
    "uration": 2633,
    "bra": 2634,
    "\u2581date": 2635,
    "[]": 2636,
    "\u2581entre": 2637,
    "ili": 2638,
    "Portail": 2639,
    "docs": 2640,
    "\u0441\u043a\u043e\u0439": 2641,
    "Element": 2642,
    "\u2581message": 2643,
    "\u2581nach": 2644,
    "\u2581during": 2645,
    "\u2581gra": 2646,
    "etwork": 2647,
    "\u2581By": 2648,
    "\u2581tell": 2649,
    "ete": 2650,
    "~\\": 2651,
    "\u2581bis": 2652,
    "\u2581pu": 2653,
    "\u2581red": 2654,
    "\u2581thing": 2655,
    "\u2581sort": 2656,
    "xim": 2657,
    "ires": 2658,
    "User": 2659,
    "iod": 2660,
    "\u2581Est": 2661,
    "osed": 2662,
    "oute": 2663,
    "\u2581Les": 2664,
    "\u2581sent": 2665,
    "ribute": 2666,
    "utes": 2667,
    "istory": 2668,
    "\u2581service": 2669,
    "';": 2670,
    "field": 2671,
    "\u2581IN": 2672,
    "ension": 2673,
    "rel": 2674,
    "\u2581going": 2675,
    "web": 2676,
    "Context": 2677,
    "\u2581later": 2678,
    "uk": 2679,
    "layout": 2680,
    "ona": 2681,
    "\u00e1t": 2682,
    "----------------": 2683,
    "\u2581exact": 2684,
    "andom": 2685,
    "\u2581sie": 2686,
    "II": 2687,
    "\u2581They": 2688,
    "mente": 2689,
    "ibli": 2690,
    "\u2581fine": 2691,
    "UT": 2692,
    "\u2581develop": 2693,
    "\u2581Ein": 2694,
    "soft": 2695,
    "off": 2696,
    "Set": 2697,
    "\u2581az": 2698,
    "eters": 2699,
    "ilder": 2700,
    "ples": 2701,
    "\u2581specific": 2702,
    "\u2581om": 2703,
    "error": 2704,
    "ently": 2705,
    "\u2581film": 2706,
    "uck": 2707,
    "ains": 2708,
    "aci\u00f3n": 2709,
    "ges": 2710,
    "\u0436\u0430": 2711,
    "\u2581things": 2712,
    "Sh": 2713,
    "\u2581thought": 2714,
    "\u2581added": 2715,
    "dep": 2716,
    "\u0441\u043a\u043e\u0433\u043e": 2717,
    "\u2581Li": 2718,
    "ils": 2719,
    "ync": 2720,
    "\u2581\u0442\u043e": 2721,
    "ries": 2722,
    "\u2581cu": 2723,
    "chen": 2724,
    "ION": 2725,
    "\u2581Des": 2726,
    "ultado": 2727,
    "irt": 2728,
    "\u2581based": 2729,
    "\u2581mo": 2730,
    "\u2581dest": 2731,
    "png": 2732,
    "reen": 2733,
    "\u2581running": 2734,
    "amma": 2735,
    "oud": 2736,
    "\u2581refer": 2737,
    "ious": 2738,
    "\u2581Jul": 2739,
    "\u2581search": 2740,
    "ald": 2741,
    "ede": 2742,
    "\u2581wrong": 2743,
    "An": 2744,
    "\u2581until": 2745,
    "site": 2746,
    "ayer": 2747,
    "\u2581once": 2748,
    "arr": 2749,
    "\u2581against": 2750,
    "====": 2751,
    "\u2581source": 2752,
    "arn": 2753,
    "api": 2754,
    "\u2581represent": 2755,
    "\u2581aff": 2756,
    "\u2581sein": 2757,
    "\u2581allow": 2758,
    "ormal": 2759,
    "ended": 2760,
    "\u2581control": 2761,
    "mathbf": 2762,
    "come": 2763,
    "cur": 2764,
    "endo": 2765,
    "wa": 2766,
    "\u2581update": 2767,
    "\u2581inside": 2768,
    "\u2581reason": 2769,
    "omen": 2770,
    "\u2581\u0432\u044b": 2771,
    "De": 2772,
    "\u2581\u0458\u0435": 2773,
    "sw": 2774,
    "\u2581sever": 2775,
    "Of": 2776,
    "\u2581instance": 2777,
    "\u2581mer": 2778,
    "\u2581effect": 2779,
    "color": 2780,
    "ugust": 2781,
    "ilt": 2782,
    "des": 2783,
    "itz": 2784,
    "ulation": 2785,
    "nie": 2786,
    "\u2581World": 2787,
    "\u2581similar": 2788,
    "ymbol": 2789,
    "hing": 2790,
    "\u2581mark": 2791,
    "State": 2792,
    "\u2581content": 2793,
    "\u2581means": 2794,
    "amed": 2795,
    "\u2581End": 2796,
    "ND": 2797,
    "count": 2798,
    "\u2581Inst": 2799,
    "perty": 2800,
    "ctor": 2801,
    "\u2581{\\": 2802,
    "\u2581Let": 2803,
    "\u2581!=": 2804,
    "\u2581getting": 2805,
    "uth": 2806,
    "umber": 2807,
    "\u2581Consultado": 2808,
    "schaft": 2809,
    "lete": 2810,
    "\u2581Will": 2811,
    "\u2581Em": 2812,
    "head": 2813,
    "\u2581leg": 2814,
    "\u043d\u043e\u043c": 2815,
    "Or": 2816,
    "arm": 2817,
    "pond": 2818,
    "\u2581Christ": 2819,
    "\u2581around": 2820,
    "\u2581clear": 2821,
    "\u2581href": 2822,
    "\u2581See": 2823,
    "').": 2824,
    "\u2581created": 2825,
    "\u2581button": 2826,
    "ining": 2827,
    "\u2581click": 2828,
    "iam": 2829,
    "plit": 2830,
    "For": 2831,
    "\u2581polit": 2832,
    "\u2581seem": 2833,
    "\u2581life": 2834,
    "\u043d\u043e\u0432": 2835,
    "\u2581intern": 2836,
    "\u0449\u0438": 2837,
    "sel": 2838,
    "soci": 2839,
    "\u2581stor": 2840,
    "cle": 2841,
    "earch": 2842,
    "android": 2843,
    "}^{": 2844,
    "\u2581either": 2845,
    "\u2581few": 2846,
    "\u2581initial": 2847,
    "length": 2848,
    "ria": 2849,
    "sql": 2850,
    "wik": 2851,
    "\u2581\u00e9t": 2852,
    "uer": 2853,
    "\u2581valid": 2854,
    "And": 2855,
    "include": 2856,
    "ury": 2857,
    "\u2581sus": 2858,
    "ired": 2859,
    "\u2581After": 2860,
    "\u2581due": 2861,
    "\u2581bei": 2862,
    "ources": 2863,
    "\u2581Nov": 2864,
    "Act": 2865,
    "\u2581Cont": 2866,
    "\u2581break": 2867,
    "ested": 2868,
    "\u2581actually": 2869,
    "else": 2870,
    "tml": 2871,
    "rer": 2872,
    "ones": 2873,
    "\u2581design": 2874,
    "\u2581property": 2875,
    "phi": 2876,
    "ality": 2877,
    "och": 2878,
    "ists": 2879,
    "\u2581\u00b7": 2880,
    "udio": 2881,
    "AB": 2882,
    "ala": 2883,
    "iones": 2884,
    "\u0444\u0438": 2885,
    "find": 2886,
    "As": 2887,
    "\u2581custom": 2888,
    "\u2581ann": 2889,
    "ES": 2890,
    "OT": 2891,
    "lambda": 2892,
    "\u2581ident": 2893,
    "\u2581organ": 2894,
    "\u2581Cent": 2895,
    "\u2581Char": 2896,
    "\u2581os": 2897,
    "\u2581hard": 2898,
    "\u0440\u043e\u0432": 2899,
    "\u2581/>": 2900,
    "ko": 2901,
    "\u2581exper": 2902,
    "\u2581separ": 2903,
    "yl": 2904,
    "ourn": 2905,
    "\u2581dev": 2906,
    "\u2581auch": 2907,
    "\u2581block": 2908,
    "book": 2909,
    "\u2581map": 2910,
    "illa": 2911,
    "\u2581comput": 2912,
    "\u2581space": 2913,
    "result": 2914,
    ")}": 2915,
    "\u2581echo": 2916,
    "config": 2917,
    "hi": 2918,
    "\u2581large": 2919,
    "\u2581width": 2920,
    "\u2581Go": 2921,
    "mat": 2922,
    "\u2581diff": 2923,
    "\u2581kind": 2924,
    "ances": 2925,
    "ynam": 2926,
    "\u2581color": 2927,
    "Int": 2928,
    "sol": 2929,
    "\u2581pi": 2930,
    "\u2581character": 2931,
    "oment": 2932,
    "\u2581response": 2933,
    "igma": 2934,
    "wards": 2935,
    "arrow": 2936,
    "\u0441\u0443": 2937,
    "ties": 2938,
    "\u2581\u00fcber": 2939,
    "Image": 2940,
    "yd": 2941,
    "\u2581\u043f\u0435\u0440\u0435": 2942,
    "\u2581node": 2943,
    "\u2581item": 2944,
    "achine": 2945,
    "ima": 2946,
    "\u2581va": 2947,
    "\u2581approach": 2948,
    "\u2581wer": 2949,
    "\u2581\u0447\u0435": 2950,
    "On": 2951,
    "ollow": 2952,
    "\u043e\u043d\u0430": 2953,
    "cted": 2954,
    "ured": 2955,
    "Controller": 2956,
    "lied": 2957,
    "\u2581jo": 2958,
    "\u2581dal": 2959,
    "unk": 2960,
    "\u2581\u00ee": 2961,
    "start": 2962,
    "ola": 2963,
    "\u2581compon": 2964,
    "IC": 2965,
    "bit": 2966,
    "\u2581base": 2967,
    "\u043f\u0443": 2968,
    "\u2581idea": 2969,
    "\u2581dire": 2970,
    "\u2581rad": 2971,
    "group": 2972,
    "\u2581With": 2973,
    "server": 2974,
    "side": 2975,
    "sing": 2976,
    "\u2581dies": 2977,
    "\u2581near": 2978,
    "\u2581voor": 2979,
    "\u2581argument": 2980,
    "\u2581},": 2981,
    "\u2581land": 2982,
    "\u2581names": 2983,
    "\u2581option": 2984,
    "ithub": 2985,
    "pped": 2986,
    "aug": 2987,
    "\u2581links": 2988,
    "\u2581full": 2989,
    "\u2581situ": 2990,
    "\u2581console": 2991,
    "\u2581etc": 2992,
    "aux": 2993,
    "\u2581Cor": 2994,
    "icrosoft": 2995,
    "\u2581came": 2996,
    "local": 2997,
    "\u2581known": 2998,
    "\u2581multiple": 2999,
    "anguage": 3000,
    "\u2581total": 3001,
    "ology": 3002,
    "\u00e4t": 3003,
    "\u2581\u0425": 3004,
    "\u2581fre": 3005,
    "\u2581ten": 3006,
    "ideo": 3007,
    "\u2581bes": 3008,
    "true": 3009,
    "Query": 3010,
    "omm": 3011,
    "\u2581Art": 3012,
    "\u2581keep": 3013,
    "\u2581University": 3014,
    "reate": 3015,
    "pport": 3016,
    "\u2581python": 3017,
    "tra": 3018,
    "ector": 3019,
    "\u0440\u0456": 3020,
    "oph": 3021,
    "\u2581conc": 3022,
    "\u2581four": 3023,
    "viron": 3024,
    "\u2581via": 3025,
    "?\"": 3026,
    "image": 3027,
    "oll": 3028,
    "\u043d\u044b\u0435": 3029,
    "\u2581context": 3030,
    "\u2581sem": 3031,
    "._": 3032,
    "\u2581eng": 3033,
    "mar": 3034,
    "AD": 3035,
    "\u2581mor": 3036,
    "\u2581Cal": 3037,
    "\u2581cell": 3038,
    "imal": 3039,
    "ATE": 3040,
    "\u2581inf": 3041,
    "\u00f6n": 3042,
    "uffer": 3043,
    "sq": 3044,
    "....": 3045,
    "\u2581zur": 3046,
    "With": 3047,
    "\u0440\u0430\u043d": 3048,
    "chn": 3049,
    "\u2581door": 3050,
    "content": 3051,
    "\u2581miss": 3052,
    "\u2581simp": 3053,
    "\u00e1r": 3054,
    "ira": 3055,
    "\u2581hat": 3056,
    "Test": 3057,
    "\u2581certain": 3058,
    "NS": 3059,
    "\u2581cho": 3060,
    "\u2581adv": 3061,
    "where": 3062,
    "\u2581looking": 3063,
    "\u2581times": 3064,
    "\u043d\u0438\u0445": 3065,
    "uto": 3066,
    "\u2581\u00c9": 3067,
    "can": 3068,
    "host": 3069,
    "\u2581(*": 3070,
    "loat": 3071,
    "\u2581nicht": 3072,
    "Field": 3073,
    "burg": 3074,
    "const": 3075,
    "ades": 3076,
    "\u2581Mus": 3077,
    "\u2581nothing": 3078,
    "\u2581incre": 3079,
    "\u2581Min": 3080,
    "\u2581power": 3081,
    "\u2581American": 3082,
    "ln": 3083,
    "valid": 3084,
    "ungs": 3085,
    "\u2581National": 3086,
    "\u2581San": 3087,
    "\u2581York": 3088,
    "Request": 3089,
    "char": 3090,
    "\u2581Ze": 3091,
    "button": 3092,
    "\u2581alg": 3093,
    "SON": 3094,
    "\u2581ap": 3095,
    "uff": 3096,
    "ability": 3097,
    "\u0435\u043c": 3098,
    "\u2581anything": 3099,
    "ela": 3100,
    "())": 3101,
    "\u0431\u0430": 3102,
    "ampion": 3103,
    "\u2581pot": 3104,
    "\u2581fut": 3105,
    "ailable": 3106,
    "\u2581prop": 3107,
    "\"]": 3108,
    "\u2581less": 3109,
    "lag": 3110,
    "\u2581August": 3111,
    "It": 3112,
    "\u2581please": 3113,
    "\u2581style": 3114,
    "\u2581Also": 3115,
    "bt": 3116,
    "\u2581probably": 3117,
    "\u2581One": 3118,
    "\u2581poss": 3119,
    "UI": 3120,
    "uit": 3121,
    "\u2581West": 3122,
    "hn": 3123,
    "+\\": 3124,
    "Button": 3125,
    "json": 3126,
    "err": 3127,
    "rame": 3128,
    "dom": 3129,
    "ilon": 3130,
    "alf": 3131,
    "\u2581client": 3132,
    "\u2581continu": 3133,
    "xml": 3134,
    "pec": 3135,
    "ador": 3136,
    "ls": 3137,
    "\u2581however": 3138,
    "\u2581Any": 3139,
    "\u00e4nd": 3140,
    "mathrm": 3141,
    "\u2581url": 3142,
    "\u2581book": 3143,
    "\u2581gl": 3144,
    "ives": 3145,
    "gi": 3146,
    "\u2581tro": 3147,
    "\u2581US": 3148,
    "point": 3149,
    "open": 3150,
    "\u2581cur": 3151,
    "\u2581era": 3152,
    "\u2581particular": 3153,
    "\u2581HT": 3154,
    "oot": 3155,
    "ello": 3156,
    "lobal": 3157,
    "\u2581action": 3158,
    "\u2581Int": 3159,
    "\u2581include": 3160,
    "\u2581elements": 3161,
    "\u043d\u0430\u044f": 3162,
    "ards": 3163,
    "\u2581Bl": 3164,
    "\u2581hum": 3165,
    "from": 3166,
    "change": 3167,
    "\u2581functions": 3168,
    "hen": 3169,
    "Service": 3170,
    "\u2581height": 3171,
    "\u2581Land": 3172,
    "ias": 3173,
    "gs": 3174,
    "i\u00f3n": 3175,
    "\u043b\u043e\u0432": 3176,
    "node": 3177,
    ".\u201d": 3178,
    "hand": 3179,
    "\u2581\u0431\u0443": 3180,
    "\u2581amb": 3181,
    "\u2581Lu": 3182,
    "\u2581throw": 3183,
    "\u2581mot": 3184,
    "\u2581Act": 3185,
    "\u2581world": 3186,
    "_\\": 3187,
    "base": 3188,
    "\u2581Co": 3189,
    "\u2581arch": 3190,
    "\u2581####": 3191,
    "ged": 3192,
    "pril": 3193,
    "older": 3194,
    "Model": 3195,
    "\u2581several": 3196,
    "lie": 3197,
    "check": 3198,
    "]{": 3199,
    "cons": 3200,
    "\u2581Tra": 3201,
    "heck": 3202,
    "\u2581least": 3203,
    "down": 3204,
    "ebru": 3205,
    "Def": 3206,
    "param": 3207,
    "ischer": 3208,
    "\u2581cas": 3209,
    "CH": 3210,
    "\u2581address": 3211,
    "\u2581\u0440\u0430\u0437": 3212,
    "ufen": 3213,
    "urope": 3214,
    "\u0435\u0439": 3215,
    "\u2581bound": 3216,
    "CO": 3217,
    "\u2581Ang": 3218,
    "\u2581Ma": 3219,
    "Index": 3220,
    "core": 3221,
    "ouch": 3222,
    "atabase": 3223,
    "ribution": 3224,
    "document": 3225,
    "Le": 3226,
    "}_{": 3227,
    "vern": 3228,
    "\u2581statement": 3229,
    "\u2581Brit": 3230,
    "ono": 3231,
    "psilon": 3232,
    "\u2581level": 3233,
    "\u2581product": 3234,
    "IS": 3235,
    "\u2581course": 3236,
    "\u2581Mr": 3237,
    ">\r": 3238,
    "\u2581background": 3239,
    "\u2581ret": 3240,
    "ering": 3241,
    "most": 3242,
    "\u0441\u044c\u043a\u043e": 3243,
    "\u2581thread": 3244,
    "itional": 3245,
    "ites": 3246,
    "Pl": 3247,
    "\u2581dos": 3248,
    "ga": 3249,
    "day": 3250,
    "\u2581Gener": 3251,
    "\u2581tw": 3252,
    "Ad": 3253,
    "\"><": 3254,
    "\u2581($": 3255,
    "\u2581moment": 3256,
    "title": 3257,
    "create": 3258,
    "version": 3259,
    "Manager": 3260,
    "\u2581fur": 3261,
    "pping": 3262,
    "ijn": 3263,
    "\u043e\u0441": 3264,
    "\u2581rather": 3265,
    "ptember": 3266,
    "OS": 3267,
    "\u2581site": 3268,
    "\u2581caus": 3269,
    "ani": 3270,
    "\u2581home": 3271,
    "\u043c\u0456": 3272,
    "\u2581short": 3273,
    "pa": 3274,
    "\u2581lead": 3275,
    "ished": 3276,
    "cing": 3277,
    "ording": 3278,
    "\u2581prote": 3279,
    "\u0441\u043b\u0435": 3280,
    "LECT": 3281,
    "\u2581didn": 3282,
    "position": 3283,
    "\",\"": 3284,
    "(),": 3285,
    "trans": 3286,
    "\u2581lot": 3287,
    "\u2581\u043e\u0434": 3288,
    "AS": 3289,
    "\u2581sat": 3290,
    "\u2581points": 3291,
    "github": 3292,
    "style": 3293,
    "\u2581\u0433\u043e\u0434\u0443": 3294,
    "\u2581Dis": 3295,
    "ponent": 3296,
    "omet": 3297,
    "zer": 3298,
    "ULL": 3299,
    "\u2581pa": 3300,
    "AP": 3301,
    "aces": 3302,
    "\u2581United": 3303,
    "ama": 3304,
    "ety": 3305,
    "Color": 3306,
    "\u2581enough": 3307,
    "US": 3308,
    "\u2581length": 3309,
    "());": 3310,
    "^{\\": 3311,
    "fty": 3312,
    "Box": 3313,
    "apter": 3314,
    "\u2581complet": 3315,
    "\u043d\u0438\u043a": 3316,
    "max": 3317,
    "object": 3318,
    "({": 3319,
    "imgur": 3320,
    "itive": 3321,
    "unch": 3322,
    "\u2581Sub": 3323,
    "ende": 3324,
    "\u0433\u0443": 3325,
    "ategory": 3326,
    "\u0442\u044b": 3327,
    "iano": 3328,
    "\u2581upd": 3329,
    "\u2581Aust": 3330,
    "}{\\": 3331,
    "top": 3332,
    "las": 3333,
    "pis": 3334,
    "iness": 3335,
    "\u2581{\r": 3336,
    "\u2581\u0415": 3337,
    "Gr": 3338,
    "\u2581AS": 3339,
    "\u2581\u0432\u0435": 3340,
    "thers": 3341,
    "\u2581defined": 3342,
    "azione": 3343,
    "\u2581offic": 3344,
    "\u2581autom": 3345,
    "\u00fcn": 3346,
    "\u2581brow": 3347,
    "\u2581serv": 3348,
    "\u2581remove": 3349,
    "iro": 3350,
    "\u2581Bibli": 3351,
    "ED": 3352,
    "\u2581whole": 3353,
    "\u2581\u0448": 3354,
    "\u2581Java": 3355,
    "\u2581zum": 3356,
    "ua": 3357,
    "pm": 3358,
    "dev": 3359,
    "\u043a\u0440\u0430": 3360,
    "olds": 3361,
    "\u2581War": 3362,
    "\u00e4n": 3363,
    "pass": 3364,
    "uz": 3365,
    "[\"": 3366,
    "\u2581tri": 3367,
    "ised": 3368,
    "\u0445\u0430": 3369,
    "\u2581memory": 3370,
    "\u2581Port": 3371,
    "oper": 3372,
    "Up": 3373,
    "\u2581Thank": 3374,
    "\u2581Mich": 3375,
    "ych": 3376,
    "board": 3377,
    "\u0431\u0443": 3378,
    "Inst": 3379,
    "\u2581begin": 3380,
    "ination": 3381,
    "\u2581Mod": 3382,
    "_,": 3383,
    "\u2581Den": 3384,
    "option": 3385,
    "\u2581construct": 3386,
    "\u2581Just": 3387,
    "Map": 3388,
    "run": 3389,
    "\u2581respect": 3390,
    "ham": 3391,
    "\u043c\u0430\u043d": 3392,
    "imedia": 3393,
    "\u2581apply": 3394,
    "cription": 3395,
    "main": 3396,
    "\u2581\u041a\u0430": 3397,
    "oid": 3398,
    "Code": 3399,
    "};": 3400,
    "Info": 3401,
    "\u2581format": 3402,
    "Log": 3403,
    "\u2581\u0441\u0443": 3404,
    "\u2581lat": 3405,
    "utor": 3406,
    "\u2581reference": 3407,
    "\u2581calcul": 3408,
    "onn": 3409,
    "Lo": 3410,
    "infty": 3411,
    "\u2581along": 3412,
    "\u2581\u010d": 3413,
    "\u2581task": 3414,
    "\u2581ev": 3415,
    "theta": 3416,
    "ras": 3417,
    "jor": 3418,
    "\u2581\u0431\u043e": 3419,
    "\u2581princip": 3420,
    "My": 3421,
    "\u2581einer": 3422,
    "\u2581Es": 3423,
    "omb": 3424,
    "quad": 3425,
    "^{-": 3426,
    "ump": 3427,
    "\u2581till": 3428,
    "\u0434\u0456": 3429,
    "\u2581looks": 3430,
    "\u2581ok": 3431,
    "\u0446\u0430": 3432,
    "nu": 3433,
    "Fil": 3434,
    "\u2581sont": 3435,
    "\u2581Med": 3436,
    "ague": 3437,
    "\u2581cost": 3438,
    "\u2581Sim": 3439,
    "\u2581comment": 3440,
    "\u2581(\\": 3441,
    "egen": 3442,
    "\u2581parameter": 3443,
    "\u2581France": 3444,
    "rep": 3445,
    "\u2581TH": 3446,
    "\u2581yet": 3447,
    "\u2581away": 3448,
    "\u2581circ": 3449,
    "\u2581API": 3450,
    "emp": 3451,
    "\u0432\u0456": 3452,
    "Layout": 3453,
    "\u2581lines": 3454,
    "\u2581Part": 3455,
    "empt": 3456,
    "\u2581Bi": 3457,
    "\u2581mind": 3458,
    "ky": 3459,
    "ging": 3460,
    "\u2581report": 3461,
    "\u2581Add": 3462,
    "\u0440\u043e\u0434": 3463,
    "\u2581range": 3464,
    "cias": 3465,
    "lip": 3466,
    "\u2581Kar": 3467,
    "\u2581Commons": 3468,
    "gerufen": 3469,
    "aff": 3470,
    "sec": 3471,
    "\u2581html": 3472,
    "lig": 3473,
    "\u2581window": 3474,
    "inition": 3475,
    "cis": 3476,
    "\u2581ut": 3477,
    "eln": 3478,
    "\u2581aux": 3479,
    "\u2581neg": 3480,
    "Hand": 3481,
    "\u2581);": 3482,
    "\u2581anal": 3483,
    "\u2581fri": 3484,
    "\u2581\u0441\u0438": 3485,
    "etch": 3486,
    "md": 3487,
    "page": 3488,
    "\u2581library": 3489,
    "\u2581:=": 3490,
    "ROM": 3491,
    "You": 3492,
    "space": 3493,
    "\u2581durch": 3494,
    "\u2581host": 3495,
    "aven": 3496,
    "\u2581File": 3497,
    "alle": 3498,
    "\u0442\u0438\u0432": 3499,
    "\u2581pap": 3500,
    "\u0441\u0442\u0432\u043e": 3501,
    "mark": 3502,
    "\u2581mais": 3503,
    "erman": 3504,
    "Size": 3505,
    "\u0435\u043a": 3506,
    "\u2581\u041c\u0430": 3507,
    "\u2581isn": 3508,
    "\u2581copy": 3509,
    "sten": 3510,
    "river": 3511,
    "\u2581went": 3512,
    "\u2581javascript": 3513,
    "\u2581sam": 3514,
    "\u2581frame": 3515,
    "\u2581vi": 3516,
    "\u2581previous": 3517,
    "rodu": 3518,
    "\u2581methods": 3519,
    "\u2581necess": 3520,
    "NA": 3521,
    "cket": 3522,
    "\u2581opt": 3523,
    "Loc": 3524,
    "how": 3525,
    "\u2581\u00een": 3526,
    "ship": 3527,
    "\u2581itself": 3528,
    "\u2581Please": 3529,
    "iene": 3530,
    "\u0432\u0435\u0440": 3531,
    "\u2581<<": 3532,
    "\u2581mill": 3533,
    "\u2581trad": 3534,
    "pace": 3535,
    "\u2581Har": 3536,
    "iten": 3537,
    "wise": 3538,
    "write": 3539,
    "\u0446\u0438\u0438": 3540,
    "\u0440\u044b": 3541,
    "Line": 3542,
    "olo": 3543,
    "\u2581accept": 3544,
    "height": 3545,
    "\u2581elect": 3546,
    "ella": 3547,
    "\u2581p\u00e5": 3548,
    "Select": 3549,
    "\u2581\u043b\u0438": 3550,
    "\u2581\\<": 3551,
    "((": 3552,
    "\u2581ID": 3553,
    "ops": 3554,
    "\u0432\u0430\u043d": 3555,
    "i\u00f3": 3556,
    "TP": 3557,
    "\u00bb,": 3558,
    "nection": 3559,
    "parent": 3560,
    "\u2581Mag": 3561,
    "Table": 3562,
    "Over": 3563,
    "\u2581network": 3564,
    "\u0441\u043f\u043e": 3565,
    "\u2581assign": 3566,
    "igger": 3567,
    "irm": 3568,
    ")`": 3569,
    "ottom": 3570,
    "beta": 3571,
    "\u2581dell": 3572,
    "\u2581body": 3573,
    "\u2581\u0434\u0430": 3574,
    "\u2581Your": 3575,
    "\u2581fue": 3576,
    "\u2581package": 3577,
    "\u2581light": 3578,
    "\u2581**": 3579,
    "MP": 3580,
    "\u2581cou": 3581,
    "yes": 3582,
    ":\\": 3583,
    "\u2581\u0427": 3584,
    "\u2581mention": 3585,
    "ensch": 3586,
    "\u2581deg": 3587,
    "\u2581convert": 3588,
    "\u2581Dav": 3589,
    "adt": 3590,
    "Result": 3591,
    "though": 3592,
    "\u2581bus": 3593,
    "xy": 3594,
    "\u2581seen": 3595,
    "All": 3596,
    "public": 3597,
    "ively": 3598,
    "\u2581Rec": 3599,
    "\u2581His": 3600,
    "sim": 3601,
    "\u2581f\u00f6r": 3602,
    "\u2581histor": 3603,
    "\u2581sett": 3604,
    "rat": 3605,
    "abled": 3606,
    "\u2581\u00bb,": 3607,
    "google": 3608,
    "Web": 3609,
    "\u00e9l": 3610,
    "\u2581title": 3611,
    "\u2581Janu": 3612,
    "\u0458\u0430": 3613,
    "\u2581took": 3614,
    "iden": 3615,
    "sz": 3616,
    "\u2581Get": 3617,
    "\u2581objects": 3618,
    "\u2581common": 3619,
    "\u2581changes": 3620,
    "\u2581Lond": 3621,
    "\u2581extern": 3622,
    "\u2581ju": 3623,
    "Is": 3624,
    "\u2581available": 3625,
    "tri": 3626,
    "\u2581m\u00e1s": 3627,
    "osa": 3628,
    "Be": 3629,
    "\u2581Data": 3630,
    "ural": 3631,
    "\u2581hom": 3632,
    "\u2581account": 3633,
    "oo": 3634,
    "\u2581perm": 3635,
    "respond": 3636,
    "yt": 3637,
    "\u2581send": 3638,
    "\u2581returns": 3639,
    "ivid": 3640,
    "\u2581expla": 3641,
    "\u00edn": 3642,
    "\u2581nor": 3643,
    "If": 3644,
    "\u2581From": 3645,
    "\u2581target": 3646,
    "fect": 3647,
    "\u0435\u043d\u0442": 3648,
    "\u2581uit": 3649,
    "\u2581Jo": 3650,
    "\u2581variables": 3651,
    "\u2581series": 3652,
    "\u2581func": 3653,
    "\u2581himself": 3654,
    "\u2581\u0447\u0430": 3655,
    "anti": 3656,
    "\u2581ach": 3657,
    "ialog": 3658,
    "\u2581std": 3659,
    "ae": 3660,
    "\u2581foot": 3661,
    "\u2581unter": 3662,
    "gress": 3663,
    "Not": 3664,
    "rad": 3665,
    "f\u00e9r": 3666,
    "\u2581util": 3667,
    "orem": 3668,
    "\u2581sou": 3669,
    "opt": 3670,
    "\u2581og": 3671,
    "\u2581uma": 3672,
    "itar": 3673,
    "\u2581Ok": 3674,
    "\u00fcck": 3675,
    "sqrt": 3676,
    "\u2581ant": 3677,
    "\u2581werden": 3678,
    "\u00e5r": 3679,
    "});": 3680,
    "\u2581Paris": 3681,
    "\u2581exception": 3682,
    "\u2581determ": 3683,
    "\u2581Vol": 3684,
    "\u2581Sam": 3685,
    "\u2581ess": 3686,
    "lies": 3687,
    "ioni": 3688,
    "oding": 3689,
    "idget": 3690,
    "\u2581pri": 3691,
    "\u2581whether": 3692,
    "\u2581\u043f\u043e\u0434": 3693,
    "\u2581numbers": 3694,
    "\u2581~": 3695,
    "event": 3696,
    "\u2581shows": 3697,
    "atures": 3698,
    "\u2581house": 3699,
    "\u2581face": 3700,
    "\u2581si\u0119": 3701,
    "vironment": 3702,
    "van": 3703,
    "\u2581including": 3704,
    "\u2581<-": 3705,
    "times": 3706,
    "now": 3707,
    "\u2581pur": 3708,
    "ifier": 3709,
    "\u2581emp": 3710,
    "\u2581cla": 3711,
    "mon": 3712,
    "\u2581Das": 3713,
    "ady": 3714,
    "\u2581\u0432\u0456\u0434": 3715,
    "\u2581\u0446": 3716,
    "abor": 3717,
    "OST": 3718,
    "\u2581band": 3719,
    "\u2581\u00fa": 3720,
    "\u2581exactly": 3721,
    "iert": 3722,
    "avig": 3723,
    "\u2581redu": 3724,
    "\u2581SE": 3725,
    "lished": 3726,
    "Bu": 3727,
    "Message": 3728,
    "cell": 3729,
    "fully": 3730,
    "\u2581sv": 3731,
    "\u2581makes": 3732,
    "pol": 3733,
    "\u2581required": 3734,
    "ferrer": 3735,
    "\u2581pers": 3736,
    "\u2581mi": 3737,
    "FI": 3738,
    "\u2581Paul": 3739,
    "\u2581UI": 3740,
    "\u2581Bel": 3741,
    "inc": 3742,
    "\u2581contains": 3743,
    "Out": 3744,
    "asure": 3745,
    "pu": 3746,
    "oto": 3747,
    "\u2581game": 3748,
    "zn": 3749,
    "\u2581Why": 3750,
    "orith": 3751,
    "big": 3752,
    "\u043a\u0438\u0439": 3753,
    "sigma": 3754,
    "\u2581quite": 3755,
    "\u2581jed": 3756,
    "rec": 3757,
    "\u2581SQL": 3758,
    "\u0431\u0435": 3759,
    "\u2581Mart": 3760,
    "ya": 3761,
    "\u2581school": 3762,
    "\u2581simply": 3763,
    "\u2581vor": 3764,
    "\u2581double": 3765,
    "\u0440\u0430\u0432": 3766,
    "\u2581Str": 3767,
    "iem": 3768,
    "\u2581album": 3769,
    "\u2581resol": 3770,
    "\u2581dei": 3771,
    "\u2581Wik": 3772,
    "\u2581aw": 3773,
    "umb": 3774,
    "ols": 3775,
    "\u2581*/": 3776,
    "\u2581ze": 3777,
    "\u2581anim": 3778,
    "/>": 3779,
    "ris": 3780,
    "resh": 3781,
    "No": 3782,
    "iques": 3783,
    "current": 3784,
    "\u2581period": 3785,
    "\u2581April": 3786,
    "\u2581store": 3787,
    "','": 3788,
    "\u2581Set": 3789,
    "={": 3790,
    "ached": 3791,
    "\u2581Mal": 3792,
    "\u2581Pal": 3793,
    "antes": 3794,
    "aterial": 3795,
    "\u2581worked": 3796,
    "leq": 3797,
    "oreferrer": 3798,
    "\u2581happen": 3799,
    "\u2581box": 3800,
    "ney": 3801,
    "\u2581close": 3802,
    "\u2581gran": 3803,
    "\u2581lie": 3804,
    "\u2581ir": 3805,
    "\u2581expected": 3806,
    "\u2581\u0434\u043b\u044f": 3807,
    "click": 3808,
    "\u0219i": 3809,
    "\u2581parte": 3810,
    "ogn": 3811,
    "\u2581Form": 3812,
    "\u2581memb": 3813,
    "\u2581plan": 3814,
    "\u2581team": 3815,
    "][": 3816,
    "\u2581commun": 3817,
    "orry": 3818,
    "ency": 3819,
    "gl": 3820,
    "inary": 3821,
    "cdot": 3822,
    "^\\": 3823,
    "\u2581First": 3824,
    "ander": 3825,
    "\u2581Dec": 3826,
    "request": 3827,
    "\u0441\u0442\u0432\u0430": 3828,
    "\u2581structure": 3829,
    "\u2581||": 3830,
    "\u2581Comp": 3831,
    "actory": 3832,
    "\u2581Mil": 3833,
    "\u2581Some": 3834,
    "Stream": 3835,
    "\u2581assum": 3836,
    "uen": 3837,
    "\u2581words": 3838,
    "\u2581September": 3839,
    "\u2581\u041a\u043e": 3840,
    "\u2581days": 3841,
    "ories": 3842,
    "\u0441\u0442\u0430\u0432": 3843,
    "sm": 3844,
    "vin": 3845,
    "partial": 3846,
    "\u2581parent": 3847,
    "oj": 3848,
    "\u043d\u0438\u0438": 3849,
    "!\"": 3850,
    "ugin": 3851,
    "\u2581Windows": 3852,
    "Ed": 3853,
    ":}": 3854,
    "\u2581q": 3855,
    "\u2581ben": 3856,
    "iana": 3857,
    "\u2581label": 3858,
    "state": 3859,
    "uted": 3860,
    "\u2581()": 3861,
    "\u2581\u0441\u0432\u043e": 3862,
    "\u2581edit": 3863,
    "uring": 3864,
    "\u2581NS": 3865,
    "\u2581Jahr": 3866,
    "\u2581provide": 3867,
    "He": 3868,
    "\u2581Yes": 3869,
    "anel": 3870,
    "ename": 3871,
    "\u2581Don": 3872,
    "isk": 3873,
    "gra": 3874,
    "elij": 3875,
    "\u2581root": 3876,
    "*/": 3877,
    "\u2581Fre": 3878,
    "\u2581Mor": 3879,
    "used": 3880,
    "range": 3881,
    "\u2581tamb": 3882,
    "\u2581module": 3883,
    "\u2581directory": 3884,
    "ounds": 3885,
    "Activity": 3886,
    "\u2581mu": 3887,
    "info": 3888,
    "\u2581free": 3889,
    "orge": 3890,
    "tab": 3891,
    ")=": 3892,
    "lang": 3893,
    "\u2581\u043e\u0441": 3894,
    "\u2581FROM": 3895,
    "\u2581enter": 3896,
    "\u2581became": 3897,
    "idae": 3898,
    "\u0445\u0438": 3899,
    "\u2581States": 3900,
    "verse": 3901,
    "\u2581expl": 3902,
    "ynt": 3903,
    "UN": 3904,
    "ee": 3905,
    "endent": 3906,
    "\u2581making": 3907,
    "\u2581\"$": 3908,
    "uni": 3909,
    "quence": 3910,
    "\u2581lui": 3911,
    "HT": 3912,
    "\u2581uses": 3913,
    "zie": 3914,
    "nia": 3915,
    "Content": 3916,
    "\u2581Count": 3917,
    "\u2581standard": 3918,
    "ENT": 3919,
    "\u2581\u043a\u043e\u043d": 3920,
    "fort": 3921,
    "adas": 3922,
    "\u0437\u0443": 3923,
    "System": 3924,
    "\u2581Sw": 3925,
    "\u2581ever": 3926,
    "LO": 3927,
    "\u2581correspond": 3928,
    "\u2581Po": 3929,
    "argin": 3930,
    "\u043a\u0442": 3931,
    "\u0456\u0439": 3932,
    "\u2581remain": 3933,
    "cio": 3934,
    "\u2581actual": 3935,
    "\u0441\u0442\u0443": 3936,
    "\u2581sind": 3937,
    "\u2581Pe": 3938,
    "\u2581changed": 3939,
    "\u2581Note": 3940,
    "skie": 3941,
    "\u2581family": 3942,
    "it\u00e0": 3943,
    "cos": 3944,
    "txt": 3945,
    "ker": 3946,
    "ceed": 3947,
    "\u2581arr": 3948,
    "\u2581cam": 3949,
    "izer": 3950,
    "\u2581Dan": 3951,
    "hel": 3952,
    "icult": 3953,
    "HP": 3954,
    "iler": 3955,
    "\u2581Sal": 3956,
    "\u2581connection": 3957,
    "usion": 3958,
    "kn": 3959,
    "RI": 3960,
    "\u2581vom": 3961,
    "Listener": 3962,
    "\u2581\u00f6": 3963,
    "\u2581dim": 3964,
    "\u2581press": 3965,
    "\u2581esc": 3966,
    "\u2581Try": 3967,
    "atalog": 3968,
    "\u2581thanks": 3969,
    "DO": 3970,
    "\u2581written": 3971,
    "dir": 3972,
    "rew": 3973,
    "\u2581fire": 3974,
    "\u2581Nach": 3975,
    "\u2581\u00e1": 3976,
    "enc": 3977,
    "\u2581origin": 3978,
    "\u2581November": 3979,
    "\u2581};": 3980,
    "Count": 3981,
    "\u2581\u0417\u0430": 3982,
    "\u2581graph": 3983,
    "\u2581mis": 3984,
    "\u2581External": 3985,
    "\u2581\u2581\u2581\u2581\u2581\u2581\u2581\u2581\u2581": 3986,
    "\u2581options": 3987,
    "\u2581URL": 3988,
    "\u2581php": 3989,
    "\u2581integr": 3990,
    "Config": 3991,
    "\u2581Text": 3992,
    "inner": 3993,
    "\u2581crit": 3994,
    ",\u201d": 3995,
    "\u2581tog": 3996,
    "$$": 3997,
    "nof": 3998,
    "\u2581ses": 3999,
    "\u00fchr": 4000,
    "\u2581Since": 4001,
    "Des": 4002,
    "ube": 4003,
    "\u2581section": 4004,
    "\u2581gi": 4005,
    "ford": 4006,
    "\u2581Ass": 4007,
    "ainer": 4008,
    "ttp": 4009,
    "\u2581behav": 4010,
    "ports": 4011,
    "draw": 4012,
    "This": 4013,
    "ranch": 4014,
    "inding": 4015,
    "\u2581estab": 4016,
    "\u2581obtain": 4017,
    "rich": 4018,
    "licit": 4019,
    "\u0435\u0432": 4020,
    "\u2581qual": 4021,
    "\u2581za": 4022,
    "\u2581har": 4023,
    "\u2581fac": 4024,
    "aar": 4025,
    "jet": 4026,
    "icles": 4027,
    "\u2581Aus": 4028,
    "\u2581hor": 4029,
    "\u2581remov": 4030,
    "\u2581wie": 4031,
    "Client": 4032,
    "\u2581natur": 4033,
    "hip": 4034,
    "Sub": 4035,
    "\u2581random": 4036,
    "DF": 4037,
    "\u2581area": 4038,
    "tag": 4039,
    "Pr": 4040,
    "\u2581Ital": 4041,
    "\u2581roku": 4042,
    "nofollow": 4043,
    "*}": 4044,
    "\u2581others": 4045,
    "\u2581limit": 4046,
    "\u2581sil": 4047,
    "\u2581sav": 4048,
    "\u2581often": 4049,
    "\u2581render": 4050,
    "DB": 4051,
    "\u2581Mc": 4052,
    "\u2581zijn": 4053,
    "\u0436\u0435\u043d": 4054,
    "\u2581tag": 4055,
    "ming": 4056,
    "lichen": 4057,
    "pack": 4058,
    "\u2581Ag": 4059,
    "\u2581sense": 4060,
    "pg": 4061,
    "Method": 4062,
    "aged": 4063,
    "\u00e1g": 4064,
    "\u0142a": 4065,
    "\u2581interest": 4066,
    "\u2581associ": 4067,
    "volution": 4068,
    "\u2581empty": 4069,
    "iche": 4070,
    "\u2581gro": 4071,
    "\u2581types": 4072,
    "\u2581Sie": 4073,
    "Inter": 4074,
    "\u2581noreferrer": 4075,
    "\u2581gives": 4076,
    "hal": 4077,
    "\u2581save": 4078,
    "\u2581font": 4079,
    "ruction": 4080,
    "Script": 4081,
    "\u2581alla": 4082,
    "\u2581says": 4083,
    "\u2581fu": 4084,
    "ape": 4085,
    "\u2581language": 4086,
    "iger": 4087,
    "\u2581King": 4088,
    "bor": 4089,
    "uv": 4090,
    "\u2581shall": 4091,
    "\u2581Europe": 4092,
    "\u2581einem": 4093,
    "\u2581water": 4094,
    "\u2581govern": 4095,
    "anz": 4096,
    "ators": 4097,
    "\u2581month": 4098,
    "ye": 4099,
    "\u2581important": 4100,
    "atz": 4101,
    "first": 4102,
    "\u2581Trans": 4103,
    "\u2581Mad": 4104,
    "\u2581bra": 4105,
    "ika": 4106,
    "\u2581Saint": 4107,
    "oria": 4108,
    "kre": 4109,
    "ements": 4110,
    "\u2581Ben": 4111,
    "lav": 4112,
    "\u2581admin": 4113,
    "\u2581Hen": 4114,
    "ril": 4115,
    "\u2581Sm": 4116,
    "cat": 4117,
    "\u2581Refer": 4118,
    "\u2581\u0428": 4119,
    "\u2581pract": 4120,
    "\u2581Pat": 4121,
    "\u2581Gre": 4122,
    "\u2581young": 4123,
    "\u2581Inter": 4124,
    "oma": 4125,
    "teger": 4126,
    "ibility": 4127,
    "\u2581parameters": 4128,
    "\u2581everything": 4129,
    "dat": 4130,
    "urop": 4131,
    "olean": 4132,
    "\u2581returned": 4133,
    "\u2581Class": 4134,
    "acy": 4135,
    "####": 4136,
    "\u2581p\u0159": 4137,
    "\u2581folder": 4138,
    "\u2581kon": 4139,
    "\u2581guess": 4140,
    "gt": 4141,
    "jen": 4142,
    "annel": 4143,
    "icon": 4144,
    "\u2581comb": 4145,
    "rict": 4146,
    "\u2581hij": 4147,
    "\u2581author": 4148,
    "see": 4149,
    "here": 4150,
    "stra": 4151,
    "\u2581entire": 4152,
    "\u2581directly": 4153,
    "raft": 4154,
    "heet": 4155,
    "ester": 4156,
    "\u2581\u043c\u0438": 4157,
    "\u2581mass": 4158,
    "untu": 4159,
    "\u2581users": 4160,
    "chi": 4161,
    "PE": 4162,
    "\u2581component": 4163,
    "Click": 4164,
    "Att": 4165,
    "\u2581sobre": 4166,
    "ands": 4167,
    "\u2581Hol": 4168,
    "\u2581Sant": 4169,
    "ori": 4170,
    "\u2581sua": 4171,
    "std": 4172,
    "entic": 4173,
    "CC": 4174,
    "\u2581filter": 4175,
    "SQL": 4176,
    "\u2581God": 4177,
    "At": 4178,
    "\u2581\u043c\u0443": 4179,
    "\u2581performance": 4180,
    "delta": 4181,
    "ande": 4182,
    "amer": 4183,
    "\u0434\u044b": 4184,
    "\u2581cult": 4185,
    "\u2581Nor": 4186,
    "but": 4187,
    "\u2581lik": 4188,
    "********": 4189,
    "\u0441\u0442\u0432\u0435\u043d": 4190,
    "\u2581comme": 4191,
    "\u2581dr": 4192,
    "imer": 4193,
    "ordin": 4194,
    "\u2581condition": 4195,
    "este": 4196,
    "([": 4197,
    "FF": 4198,
    "\u0442\u044c\u0441\u044f": 4199,
    "imo": 4200,
    "rab": 4201,
    "\u0456\u043b\u044c": 4202,
    "\u2581half": 4203,
    "each": 4204,
    "Dis": 4205,
    "\u2581rows": 4206,
    "\u2581hon": 4207,
    "\u2581together": 4208,
    "\u2581\u0219i": 4209,
    "medi": 4210,
    "agn": 4211,
    "alled": 4212,
    "\u2581vill": 4213,
    "ING": 4214,
    "idden": 4215,
    "\u2581draw": 4216,
    "yntax": 4217,
    "\u2581attempt": 4218,
    "URL": 4219,
    "pose": 4220,
    "\u2581indic": 4221,
    "\u043d\u0438\u043a\u0430": 4222,
    "\u2581English": 4223,
    "\u2581d\u00e9c": 4224,
    "\u2581needs": 4225,
    "\u2581normal": 4226,
    "urt": 4227,
    "\u2581\u043d\u043e": 4228,
    "}}\\": 4229,
    "last": 4230,
    "\u2581Fin": 4231,
    "\u2581Febru": 4232,
    "ila": 4233,
    "\u2581country": 4234,
    "\u2581fields": 4235,
    "\u2581max": 4236,
    "l\u00e9s": 4237,
    "owie": 4238,
    "\u2581deux": 4239,
    "\u2581built": 4240,
    "\u2581Main": 4241,
    "\u2581camp": 4242,
    "ivo": 4243,
    "iva": 4244,
    "icy": 4245,
    "zione": 4246,
    "Node": 4247,
    "\u2581:)": 4248,
    "\u2581among": 4249,
    "\u2581Ob": 4250,
    "\u2581cases": 4251,
    "haps": 4252,
    "sers": 4253,
    "arter": 4254,
    "\u015bci": 4255,
    "\u2581iter": 4256,
    "\u2581named": 4257,
    "exec": 4258,
    "\u2581season": 4259,
    "tot": 4260,
    "=>": 4261,
    "graph": 4262,
    "\u2581nil": 4263,
    "acional": 4264,
    "\u2581NULL": 4265,
    "\u2581special": 4266,
    "\u0441\u0442\u0435": 4267,
    "css": 4268,
    "\u2581\\(": 4269,
    "vs": 4270,
    "ael": 4271,
    "\u2581city": 4272,
    "ova": 4273,
    "\u2581article": 4274,
    "\u2581South": 4275,
    "Action": 4276,
    "\u00e7a": 4277,
    "spring": 4278,
    "itude": 4279,
    "\u2581complex": 4280,
    "\u2581\u0447\u0442\u043e": 4281,
    "build": 4282,
    "gamma": 4283,
    "\u2581Ent": 4284,
    "iers": 4285,
    "'.": 4286,
    "car": 4287,
    "apache": 4288,
    "ingen": 4289,
    "Input": 4290,
    ":\u2009": 4291,
    "\u2581dynam": 4292,
    "alls": 4293,
    "show": 4294,
    "|\\": 4295,
    "\u2581wird": 4296,
    "Bar": 4297,
    "alth": 4298,
    "model": 4299,
    "Trans": 4300,
    "Row": 4301,
    "abe": 4302,
    "\u2581lib": 4303,
    "null": 4304,
    "ragment": 4305,
    "\u2581State": 4306,
    "\u2581law": 4307,
    "Frame": 4308,
    "\u2581Lo": 4309,
    "geb": 4310,
    "}$.": 4311,
    "\u2581needed": 4312,
    "\u2581contr": 4313,
    "aries": 4314,
    "\u2581screen": 4315,
    "yr": 4316,
    "mm": 4317,
    "\u2581shown": 4318,
    "\u2581bad": 4319,
    "\u2581cast": 4320,
    "\u2581Test": 4321,
    "\u2581Auf": 4322,
    "\u2581quant": 4323,
    "iga": 4324,
    "\u2581ren": 4325,
    "\u2581Mac": 4326,
    "\u2581transform": 4327,
    "\u2581difference": 4328,
    "\u2581tit": 4329,
    "TE": 4330,
    "\u2581step": 4331,
    "\u2581capt": 4332,
    "\u2581collection": 4333,
    "ictionary": 4334,
    "\u2581Tom": 4335,
    "rier": 4336,
    "\u2581move": 4337,
    "cope": 4338,
    "ords": 4339,
    "\u2581further": 4340,
    "\u2581columns": 4341,
    "\u2581Lin": 4342,
    "\u2581fixed": 4343,
    "\u2581children": 4344,
    "MS": 4345,
    "mo": 4346,
    "una": 4347,
    "\u2581individ": 4348,
    "tty": 4349,
    "aste": 4350,
    "src": 4351,
    "match": 4352,
    "wi": 4353,
    "\u2581\u0445": 4354,
    "\u2581\u0434\u0438": 4355,
    "\u2581ord": 4356,
    "iving": 4357,
    "\u2581Bro": 4358,
    "\u2581almost": 4359,
    "\u2581Pres": 4360,
    "reci": 4361,
    "aring": 4362,
    "\u2581///": 4363,
    "\u0435\u0442\u0441\u044f": 4364,
    "\u2581sig": 4365,
    "light": 4366,
    "\u2581Red": 4367,
    "\u2581suggest": 4368,
    "olf": 4369,
    "\u2581\u00e9t\u00e9": 4370,
    "isation": 4371,
    "\u0437\u043d\u0430": 4372,
    "New": 4373,
    "\u0441\u0442\u0430\u043d": 4374,
    "LA": 4375,
    "unicip": 4376,
    "\u2581figure": 4377,
    "mt": 4378,
    "iale": 4379,
    "\u2581catch": 4380,
    "default": 4381,
    "\u2581tele": 4382,
    "\u2581matter": 4383,
    "cast": 4384,
    "\u2581Rich": 4385,
    "\u2581handle": 4386,
    "valu": 4387,
    "$-": 4388,
    "\u043e\u0431": 4389,
    "\u2581json": 4390,
    "Create": 4391,
    "\u2581exam": 4392,
    "\u0430\u043b\u044c": 4393,
    "\u044e\u0442": 4394,
    "ored": 4395,
    "idos": 4396,
    "append": 4397,
    "\u2581Array": 4398,
    "\u043a\u0441": 4399,
    "}[": 4400,
    "rive": 4401,
    "\u2581club": 4402,
    "mann": 4403,
    "\u2581este": 4404,
    "esta": 4405,
    "\u2581Gi": 4406,
    "\u2581Jap": 4407,
    "\u2581Name": 4408,
    "Column": 4409,
    "oups": 4410,
    "ismo": 4411,
    "\u2581City": 4412,
    "\u2581classes": 4413,
    "\u2581infl": 4414,
    "hl": 4415,
    "\u0440\u043e\u043c": 4416,
    "\u2581adding": 4417,
    "\u2581fail": 4418,
    "xx": 4419,
    "\u00f5es": 4420,
    "Sc": 4421,
    "util": 4422,
    "\u2581location": 4423,
    "lege": 4424,
    "ago": 4425,
    "\u2581properties": 4426,
    "abil": 4427,
    "vas": 4428,
    "}$,": 4429,
    "itted": 4430,
    "\u00f3d": 4431,
    "\u2581Dem": 4432,
    "\u2581asked": 4433,
    "\u2581tab": 4434,
    "Source": 4435,
    "\u2581errors": 4436,
    "ographie": 4437,
    "\u2581\u0436\u0438": 4438,
    "\u2581mal": 4439,
    "stract": 4440,
    "\u2581dro": 4441,
    "rak": 4442,
    "\u2581note": 4443,
    "\u2581setting": 4444,
    "\u2581fem": 4445,
    "\u2581saw": 4446,
    "iar": 4447,
    "HER": 4448,
    "\u0435\u0441": 4449,
    "\u2581pred": 4450,
    "\u2581Out": 4451,
    "\u2581items": 4452,
    "\u043b\u0430\u043d": 4453,
    "\u2581werd": 4454,
    "ersion": 4455,
    "lia": 4456,
    "\u2581sin": 4457,
    "ichte": 4458,
    "\u2581feel": 4459,
    "\u2581\u043f\u0440\u0430": 4460,
    "\u2581oder": 4461,
    "UE": 4462,
    "ocument": 4463,
    "\u2581mode": 4464,
    "\u2581Na": 4465,
    "\u0434\u0435\u043d": 4466,
    "mes": 4467,
    "framework": 4468,
    "\u2581auto": 4469,
    "\u043d\u044b\u043c": 4470,
    "uby": 4471,
    "\u2581template": 4472,
    "\u2581mess": 4473,
    "ieder": 4474,
    "\u2581related": 4475,
    "oken": 4476,
    "\u2581follows": 4477,
    "search": 4478,
    "ami": 4479,
    "\u2581wait": 4480,
    "igr": 4481,
    "\u2581low": 4482,
    "\u0441\u043a\u0438\u0445": 4483,
    "\u0441\u043a\u0430\u044f": 4484,
    "\u2581Mark": 4485,
    "\u2581ill": 4486,
    "amento": 4487,
    "\\<": 4488,
    "\u2581df": 4489,
    "osition": 4490,
    "\u2581\u0412\u0438": 4491,
    "isf": 4492,
    "\u2581Deutsch": 4493,
    "ahl": 4494,
    "war": 4495,
    "itect": 4496,
    "\u2581sal": 4497,
    "elen": 4498,
    "ById": 4499,
    "\u2581gru": 4500,
    "sv": 4501,
    "\u2581passed": 4502,
    "\u2581a\u00f1": 4503,
    "Sch": 4504,
    "\u2581solve": 4505,
    "weise": 4506,
    "atos": 4507,
    "\u2581meg": 4508,
    "\u2581member": 4509,
    "ername": 4510,
    "\u2581connect": 4511,
    "ips": 4512,
    "\u2581round": 4513,
    "\u2581]": 4514,
    "nes": 4515,
    "\u2581dir": 4516,
    "\u2581London": 4517,
    "dy": 4518,
    "FA": 4519,
    "\u2581received": 4520,
    "reet": 4521,
    "\u2581Log": 4522,
    "\u2581School": 4523,
    "ango": 4524,
    "\u2581These": 4525,
    "\u2581Mont": 4526,
    "\u2581ener": 4527,
    "lad": 4528,
    "\u2581define": 4529,
    "sign": 4530,
    "\u2581cle": 4531,
    "figure": 4532,
    "\u2581View": 4533,
    "textbf": 4534,
    "$\\": 4535,
    "\u0437\u044b": 4536,
    "number": 4537,
    "\u2581din": 4538,
    "eller": 4539,
    "orithm": 4540,
    "false": 4541,
    "fol": 4542,
    "fficient": 4543,
    "\u2581HTML": 4544,
    "liche": 4545,
    "\u2581Mo": 4546,
    "\u2581introdu": 4547,
    "exp": 4548,
    "\u2581strong": 4549,
    "\u2581thus": 4550,
    "/)": 4551,
    "\u2581ele": 4552,
    "\u2581\u0442\u0430\u043a": 4553,
    "\u2581\u043f\u0430": 4554,
    "\u2581dont": 4555,
    "\u2581cause": 4556,
    "Number": 4557,
    "\u2581images": 4558,
    "\u2581sample": 4559,
    "\u2581sci": 4560,
    "like": 4561,
    "\u2581Lou": 4562,
    "div": 4563,
    "anc": 4564,
    "\u2581front": 4565,
    "nen": 4566,
    "\u2581missing": 4567,
    "aria": 4568,
    "pres": 4569,
    "\u2581\u043f\u0440\u0435\u0434": 4570,
    "DI": 4571,
    "filter": 4572,
    "\u2581Mit": 4573,
    "UR": 4574,
    "\u2581opp": 4575,
    "\u2581sql": 4576,
    "\u2581\u0440\u043e\u043a\u0443": 4577,
    "eren": 4578,
    "emat": 4579,
    "\u00eds": 4580,
    "\u2581Jean": 4581,
    "\u00e9c": 4582,
    "\u2581ci": 4583,
    "enne": 4584,
    "atform": 4585,
    "\u2581taken": 4586,
    "\u2581Of": 4587,
    "\u2581\u043d\u0430\u0441\u0435": 4588,
    "\u2581err": 4589,
    "OP": 4590,
    "From": 4591,
    "Default": 4592,
    "\u2581General": 4593,
    "wiki": 4594,
    "\u2581grand": 4595,
    "\u2581einen": 4596,
    "Reg": 4597,
    "Handler": 4598,
    "conom": 4599,
    "anger": 4600,
    "\u2581\u0431\u044b\u043b": 4601,
    "\u2581Los": 4602,
    "\u2581expression": 4603,
    "\u0448\u0430": 4604,
    "yal": 4605,
    "\u2581$('": 4606,
    "\u2581switch": 4607,
    "\u2581vector": 4608,
    "\u2581Thom": 4609,
    "\u2581virt": 4610,
    "leased": 4611,
    "\u2581cover": 4612,
    "\u2581resp": 4613,
    "ako": 4614,
    "rench": 4615,
    "ota": 4616,
    "Cell": 4617,
    "anged": 4618,
    "\u2581+=": 4619,
    "lac": 4620,
    "ska": 4621,
    "next": 4622,
    "\u2581International": 4623,
    "\u2581Wil": 4624,
    "\u2581ont": 4625,
    "ibr": 4626,
    "ustr": 4627,
    "\u2581black": 4628,
    "\u2581selected": 4629,
    "cher": 4630,
    "\u2581liter": 4631,
    "root": 4632,
    "\u043b\u0441\u044f": 4633,
    "\u2581Life": 4634,
    "\u2581insert": 4635,
    "\u2581matrix": 4636,
    "ises": 4637,
    ")]": 4638,
    "\u2581pel": 4639,
    "Override": 4640,
    "rypt": 4641,
    "\u2581former": 4642,
    "\u2581Film": 4643,
    "\u2581North": 4644,
    "client": 4645,
    "\u2581night": 4646,
    "\u0445\u043e\u0434\u0438": 4647,
    "\u2581Austral": 4648,
    "\u2581Ret": 4649,
    "rho": 4650,
    "\u2581\u043f\u0435\u0440": 4651,
    "ipedia": 4652,
    "\u2581express": 4653,
    "\u2581third": 4654,
    "\u2581major": 4655,
    "\u2581grad": 4656,
    "owe": 4657,
    "\u2581believe": 4658,
    "ournal": 4659,
    "\u2581status": 4660,
    "unc": 4661,
    "\u2581dou": 4662,
    "\u2581JSON": 4663,
    "uis": 4664,
    "\u2581population": 4665,
    "enz": 4666,
    "\u2581William": 4667,
    "sf": 4668,
    "\u2581Object": 4669,
    "\u2581cin": 4670,
    "\u2581Di": 4671,
    "curity": 4672,
    "\u2581Open": 4673,
    "\u2581\u043b\u0435": 4674,
    "lar": 4675,
    "adding": 4676,
    "\u2581kom": 4677,
    "}(\\": 4678,
    "\u2581kil": 4679,
    "umer": 4680,
    "\"/>": 4681,
    "\u2581feature": 4682,
    "\u2581Are": 4683,
    "cks": 4684,
    "\u2581Internet": 4685,
    "\u2581ih": 4686,
    "\u2581started": 4687,
    "\u2581early": 4688,
    "\u2581began": 4689,
    "TH": 4690,
    "python": 4691,
    "asp": 4692,
    "\u2581Fr": 4693,
    "\u2581clos": 4694,
    "istic": 4695,
    "\u2581music": 4696,
    "\u2581dig": 4697,
    "\u2581ital": 4698,
    "\u2581David": 4699,
    "\u2581website": 4700,
    "\u2581controller": 4701,
    "\u2581Mer": 4702,
    "context": 4703,
    "product": 4704,
    "osp": 4705,
    "\u2581\u2581\u2581\u2581\u2581\u2581\u2581": 4706,
    "\u2581jun": 4707,
    "rown": 4708,
    "\u2581Az": 4709,
    "\":\"": 4710,
    "\u2581aan": 4711,
    "\u2581Date": 4712,
    "mult": 4713,
    "\u2581browser": 4714,
    "\u0440\u0435\u0434": 4715,
    "which": 4716,
    "RA": 4717,
    "quare": 4718,
    "\u2581Russ": 4719,
    "\u2581soon": 4720,
    "\u2581Pre": 4721,
    "tau": 4722,
    "\u2581week": 4723,
    "\u2581\u0431\u0430": 4724,
    "\u2581oct": 4725,
    "\u2581town": 4726,
    "roy": 4727,
    "\u2581els": 4728,
    "blic": 4729,
    "undle": 4730,
    "\u2581Histor": 4731,
    "\u2581foi": 4732,
    "\u2581models": 4733,
    "\u0437\u043e": 4734,
    "onym": 4735,
    "Param": 4736,
    "\u2581Met": 4737,
    "gener": 4738,
    "j\u0105": 4739,
    "\u2581espe": 4740,
    "CE": 4741,
    "\u2581device": 4742,
    "ellow": 4743,
    "\u2581debug": 4744,
    "\u00e9rie": 4745,
    "using": 4746,
    "\u0430\u043d\u0433": 4747,
    "\u2581*)": 4748,
    "udi": 4749,
    "\u2581Miss": 4750,
    "\u043a\u043e\u043c": 4751,
    "posed": 4752,
    "\u2581zwe": 4753,
    "\u0456\u043d": 4754,
    "\u2581Robert": 4755,
    "\u2581Oct": 4756,
    "lop": 4757,
    "jar": 4758,
    "\u2581aver": 4759,
    "\u2581habit": 4760,
    "\u2581::": 4761,
    "\u00e4ng": 4762,
    "Start": 4763,
    "\u2581pow": 4764,
    "\u2581src": 4765,
    "\u2581pattern": 4766,
    "\u2581\u042d": 4767,
    "\u2581bi": 4768,
    "otes": 4769,
    "\u2581__": 4770,
    "\u2581sens": 4771,
    "\u2581avoid": 4772,
    "example": 4773,
    "utt": 4774,
    "Label": 4775,
    "tex": 4776,
    "boot": 4777,
    "esto": 4778,
    "\u2581March": 4779,
    "\u2581easy": 4780,
    "icture": 4781,
    "Group": 4782,
    "\u2581father": 4783,
    "\u2581updated": 4784,
    "\u2581Vo": 4785,
    "\u2581III": 4786,
    "omega": 4787,
    "\u2581alle": 4788,
    "Rec": 4789,
    "yg": 4790,
    "\u0437\u0435": 4791,
    "\u2581Dim": 4792,
    "nect": 4793,
    "\u2581Tor": 4794,
    "\u2581deutsch": 4795,
    "\u2581white": 4796,
    "\u2581national": 4797,
    "ppe": 4798,
    "\u2581air": 4799,
    "\u2581password": 4800,
    "det": 4801,
    "\u2581big": 4802,
    "\u2581Use": 4803,
    "call": 4804,
    "\u2581extra": 4805,
    "We": 4806,
    "ania": 4807,
    "\u2581hold": 4808,
    "Control": 4809,
    "\u2581CO": 4810,
    "\u2581\u043c\u0456": 4811,
    "iti": 4812,
    "\u2581Ke": 4813,
    "enu": 4814,
    "\u2581Park": 4815,
    "\u0442\u043e\u043c": 4816,
    "\u2581auth": 4817,
    "\u2581center": 4818,
    "Ph": 4819,
    "\u0442\u043e\u0432": 4820,
    "iding": 4821,
    "\u2581across": 4822,
    "\u2581song": 4823,
    "\u2581phys": 4824,
    "\u2581numer": 4825,
    "\u0449\u0430": 4826,
    "\u2581Alex": 4827,
    "\u2581problems": 4828,
    "\u2581Error": 4829,
    "format": 4830,
    "\u2581Acc": 4831,
    "\u2581six": 4832,
    "\u2581db": 4833,
    "\u2581Cast": 4834,
    "oms": 4835,
    "project": 4836,
    "\u2581vert": 4837,
    "cret": 4838,
    "\u2581header": 4839,
    "\u2581stream": 4840,
    "ids": 4841,
    "\u2581tor": 4842,
    "\u2581sept": 4843,
    "\u2581estim": 4844,
    "\u2581decl": 4845,
    "\u2581gave": 4846,
    "\u2581player": 4847,
    "ysis": 4848,
    "\u2581\u0434\u0440\u0443": 4849,
    "amm": 4850,
    "\u0449\u043e": 4851,
    "\u2581(\"": 4852,
    "\u2581ax": 4853,
    "Property": 4854,
    "usr": 4855,
    "\u2581someone": 4856,
    "\u2581impro": 4857,
    "aden": 4858,
    "rote": 4859,
    "\u2581\u041c\u0438": 4860,
    "ih": 4861,
    "++)": 4862,
    "\u2581video": 4863,
    "\u2581exists": 4864,
    "\u043a\u043b\u0430": 4865,
    "\u2581complete": 4866,
    "\u2581session": 4867,
    "\u2581constant": 4868,
    "icos": 4869,
    "\u2581pack": 4870,
    "rome": 4871,
    "egr": 4872,
    "Application": 4873,
    "\u2581yes": 4874,
    "\u2581elle": 4875,
    "\u2581email": 4876,
    "orf": 4877,
    "case": 4878,
    "\u2581pointer": 4879,
    "\u2581regard": 4880,
    "sen": 4881,
    "status": 4882,
    "\u2581mes": 4883,
    "\u2581delle": 4884,
    "ington": 4885,
    "\u2581Bas": 4886,
    ")^": 4887,
    "develop": 4888,
    "\u2581force": 4889,
    "\u2581characters": 4890,
    "\u2581cross": 4891,
    "\u2581death": 4892,
    "\u2581takes": 4893,
    "\u00e9ri": 4894,
    "igne": 4895,
    "\u0447\u0435\u043d": 4896,
    "UP": 4897,
    ".:": 4898,
    "Thread": 4899,
    "ju": 4900,
    "iny": 4901,
    "\u2581details": 4902,
    "\u2581xml": 4903,
    "tait": 4904,
    "output": 4905,
    "message": 4906,
    "''": 4907,
    "\u2581British": 4908,
    "ville": 4909,
    "\u2581Div": 4910,
    "\u2581User": 4911,
    "cm": 4912,
    "\u0447\u043d\u043e": 4913,
    "column": 4914,
    "eqref": 4915,
    "\u00f3r": 4916,
    "onom": 4917,
    "\u2581Post": 4918,
    "ellen": 4919,
    "Ab": 4920,
    "ult\u00e9": 4921,
    "\u2581perfect": 4922,
    "(){": 4923,
    "vision": 4924,
    "active": 4925,
    "lier": 4926,
    "rij": 4927,
    "sd": 4928,
    "\u2581k\u00f6": 4929,
    "\u2581nie": 4930,
    "\u2581relig": 4931,
    "\u2581ot": 4932,
    "\u2581machine": 4933,
    "\u2581held": 4934,
    ")$.": 4935,
    "========": 4936,
    "cker": 4937,
    "\u0432\u044b": 4938,
    "born": 4939,
    "\u2581past": 4940,
    "\u0440\u0438\u044f": 4941,
    "\u2581Dr": 4942,
    "\u2581regular": 4943,
    "\u2581provided": 4944,
    "TER": 4945,
    "\u2581univers": 4946,
    "\u2581gets": 4947,
    "\u2581nu": 4948,
    "\u2581/*": 4949,
    "ober": 4950,
    "fin": 4951,
    "\u2581nella": 4952,
    "\u2581become": 4953,
    "\u2581``": 4954,
    "\u2581history": 4955,
    "\u2581Sol": 4956,
    "\u2581Rad": 4957,
    "\u2581terms": 4958,
    "\u2581events": 4959,
    "lymp": 4960,
    ")))": 4961,
    "\u0440\u043e\u0432\u0430": 4962,
    "\u2581absol": 4963,
    "\u2581soft": 4964,
    "links": 4965,
    "\u2581hope": 4966,
    "\u2581subject": 4967,
    "\"),": 4968,
    "\u2581creating": 4969,
    "\u2581}\r": 4970,
    "\u2581Sk": 4971,
    "\u2581flow": 4972,
    "\u2581\u0420\u0430": 4973,
    "\u2581assert": 4974,
    "zet": 4975,
    "\u2581Frank": 4976,
    "sa": 4977,
    "\u2581distribution": 4978,
    "cu": 4979,
    "band": 4980,
    "izz": 4981,
    "\u2581job": 4982,
    "iner": 4983,
    "struct": 4984,
    "\u00e1k": 4985,
    "TO": 4986,
    "auf": 4987,
    "\u2581extends": 4988,
    "\u2581Gra": 4989,
    "display": 4990,
    "\u2581signific": 4991,
    "oney": 4992,
    "source": 4993,
    "microsoft": 4994,
    "inder": 4995,
    "\u2581quick": 4996,
    "\u2581wonder": 4997,
    "Instance": 4998,
    "elles": 4999,
    "\u00e8me": 5000,
    "\u2581company": 5001,
    "u\u00df": 5002,
    ".}": 5003,
    "\u2581separate": 5004,
    "UM": 5005,
    "HERE": 5006,
    "\u2581writing": 5007,
    "itution": 5008,
    "\u2581Gesch": 5009,
    "\u043c\u044f": 5010,
    "\u2581James": 5011,
    "\u2581DE": 5012,
    "\u2581Spe": 5013,
    "process": 5014,
    "Str": 5015,
    "\u2581sym": 5016,
    "\u2581ao": 5017,
    "\u2581wy": 5018,
    "\u2581anyone": 5019,
    "\u2581Up": 5020,
    "useum": 5021,
    "aron": 5022,
    "\u2581definition": 5023,
    "\u2581`$": 5024,
    "\u2581fav": 5025,
    "ributes": 5026,
    "\u2581R\u00e9": 5027,
    "ografia": 5028,
    "element": 5029,
    "cap": 5030,
    "pat": 5031,
    "\u2581Bra": 5032,
    ")(": 5033,
    "\u2581according": 5034,
    "\u0433\u0435": 5035,
    "\u2581pie": 5036,
    "eli": 5037,
    "}\"": 5038,
    "\u2581activ": 5039,
    "\u2581stop": 5040,
    "patch": 5041,
    "\u0442\u0456": 5042,
    "\u2581Jose": 5043,
    "End": 5044,
    "\u2581prze": 5045,
    "\u2581age": 5046,
    "itory": 5047,
    "\u2581PHP": 5048,
    "agement": 5049,
    "\u2581`.": 5050,
    "\u2581pretty": 5051,
    "\u2581recomm": 5052,
    "\u2581sud": 5053,
    "\u2581requ": 5054,
    "\u2581\u043e\u0431\u043b\u0430": 5055,
    "atives": 5056,
    "\u2581High": 5057,
    "\u00e1z": 5058,
    "oul": 5059,
    "rest": 5060,
    "\u2581Ter": 5061,
    "under": 5062,
    "thern": 5063,
    "center": 5064,
    "\u2581ur": 5065,
    "lat": 5066,
    "\u2581interface": 5067,
    "\u2581\u0438\u043d": 5068,
    "\u2581whose": 5069,
    "icas": 5070,
    "amen": 5071,
    "Filter": 5072,
    "\u2581station": 5073,
    "Page": 5074,
    "\u2581arm": 5075,
    "\u2581eyes": 5076,
    "\u2581\u0440\u0430\u0439": 5077,
    "\u2581seu": 5078,
    "oli": 5079,
    "win": 5080,
    "lik": 5081,
    "gex": 5082,
    "chan": 5083,
    "idence": 5084,
    "args": 5085,
    "aking": 5086,
    "\u2581Google": 5087,
    "\u2581Stud": 5088,
    "\u2581ho": 5089,
    "\u0442\u043e\u0440\u044b": 5090,
    "Su": 5091,
    "\u2581automat": 5092,
    "\u00eame": 5093,
    "\u2581cy": 5094,
    "lor": 5095,
    "\u2581stack": 5096,
    "\u2581SELECT": 5097,
    "AF": 5098,
    "\u2581>>": 5099,
    "\u2581compet": 5100,
    "\u2581pair": 5101,
    "\u2581ingl\u00e9s": 5102,
    "Response": 5103,
    "\u2581Fig": 5104,
    "grad": 5105,
    "\u2581documentation": 5106,
    "\u2581cant": 5107,
    "\u2581appreci": 5108,
    "\u00e5n": 5109,
    "\u2581learn": 5110,
    "\u2581indep": 5111,
    "\u2581pal": 5112,
    "package": 5113,
    "ares": 5114,
    "\u2581Berlin": 5115,
    "\u0431\u043b\u0438": 5116,
    "reich": 5117,
    "\u0451\u043d": 5118,
    "\u2581satisf": 5119,
    "\u2581region": 5120,
    "\u2581friend": 5121,
    "\u2581George": 5122,
    "\u2581\u0412\u043e": 5123,
    "\u2581\"\"": 5124,
    "\u2581desde": 5125,
    "Factory": 5126,
    "\u2581County": 5127,
    "ouv": 5128,
    "\u2581\u2018": 5129,
    "\u2581installed": 5130,
    "\u2581wanted": 5131,
    "\u2581Python": 5132,
    "\u2581interpre": 5133,
    "\u2581included": 5134,
    "\u2581((": 5135,
    "\u2581altern": 5136,
    "isto": 5137,
    "gn": 5138,
    "\u2581border": 5139,
    "pdf": 5140,
    "\u2581dup": 5141,
    "\u2581download": 5142,
    "just": 5143,
    "\u2581members": 5144,
    "child": 5145,
    "\u2581pay": 5146,
    "\u2581cer": 5147,
    "\u2581looked": 5148,
    "\u2581correctly": 5149,
    "auth": 5150,
    "\u2581\u0441\u0442\u0430\u043d": 5151,
    "\u2581esp": 5152,
    "\u2581desc": 5153,
    "eben": 5154,
    "\u2581questions": 5155,
    "mal": 5156,
    "\u2581abgerufen": 5157,
    "\u2581Band": 5158,
    "\u2581[]": 5159,
    "Base": 5160,
    "\u2581ris": 5161,
    "\u2581fort": 5162,
    "\u2581Id": 5163,
    "\u2581various": 5164,
    "\u2581League": 5165,
    "\u2581Hand": 5166,
    "\u2581Type": 5167,
    "irl": 5168,
    "\u2581Fe": 5169,
    "i\u00e9n": 5170,
    "itter": 5171,
    "\u2581fast": 5172,
    "sta": 5173,
    "\u2581except": 5174,
    "icz": 5175,
    "\u2581French": 5176,
    "\u2581environment": 5177,
    "\u2581conse": 5178,
    "\u0443\u0440": 5179,
    "\u043e\u0433\u043e": 5180,
    "\u2581necessary": 5181,
    "target": 5182,
    "\u2581reading": 5183,
    "home": 5184,
    "zeich": 5185,
    "\u2581equal": 5186,
    "\u2581pi\u00f9": 5187,
    "\u2581prem": 5188,
    "\u2581difficult": 5189,
    "\u2581unit": 5190,
    "\u2581replace": 5191,
    "\u2581heart": 5192,
    "\u2581talk": 5193,
    "AM": 5194,
    "\u2581RE": 5195,
    "\u2581Person": 5196,
    "endency": 5197,
    "\u2581imm": 5198,
    "\u2581human": 5199,
    "dn": 5200,
    "\u2581Kir": 5201,
    "\u2581Aut": 5202,
    "known": 5203,
    "\u2581frequ": 5204,
    "system": 5205,
    "\u043b\u0430\u0432": 5206,
    "\u2581Sz": 5207,
    "\u2581Gal": 5208,
    "\u043d\u043e\u0435": 5209,
    "selves": 5210,
    "rightarrow": 5211,
    "\u2581\u0421\u0430": 5212,
    "=\"@": 5213,
    "\u2581building": 5214,
    "import": 5215,
    "\u2581fam": 5216,
    "\u2581delete": 5217,
    "aire": 5218,
    "mary": 5219,
    "\u2581fund": 5220,
    "\u2581particip": 5221,
    "\u2581syn": 5222,
    "sin": 5223,
    "\u2581lower": 5224,
    "\u2581zero": 5225,
    "\u2581sec": 5226,
    "\u2581fra": 5227,
    "Point": 5228,
    "\u2581failed": 5229,
    "iento": 5230,
    "cup": 5231,
    "\u2581slow": 5232,
    "\u2581nation": 5233,
    "\u00e4hr": 5234,
    "\u2581info": 5235,
    "\u2581Public": 5236,
    "\u2581decla": 5237,
    "\u2581\u0422\u0430": 5238,
    "\u2581sold": 5239,
    "\u2581Rem": 5240,
    "\u2581Phil": 5241,
    "\u0441\u0442\u0440\u0430": 5242,
    "\u2581mehr": 5243,
    "\u2581Work": 5244,
    "\u2581Nord": 5245,
    "\u2581fait": 5246,
    "\u2581gew": 5247,
    "println": 5248,
    "obile": 5249,
    "\u2581Kon": 5250,
    "\u2581assume": 5251,
    "lands": 5252,
    "\u2581amount": 5253,
    "\u2581Press": 5254,
    "\u00fdch": 5255,
    "\u2581maxim": 5256,
    "\u2581Champion": 5257,
    "library": 5258,
    "a\u00f1": 5259,
    "\u2581Wal": 5260,
    "Comm": 5261,
    "]]": 5262,
    "\u2581zw": 5263,
    "\u2581social": 5264,
    "LI": 5265,
    "\u2581Unter": 5266,
    "vor": 5267,
    "Delta": 5268,
    "email": 5269,
    "raint": 5270,
    "oni": 5271,
    "\u2581alt": 5272,
    "\u2581n\u00e9": 5273,
    "\u0446\u0438\u044f": 5274,
    "ography": 5275,
    "\u2581mentioned": 5276,
    "\u2581<=": 5277,
    "\u2581cette": 5278,
    "\u2581currently": 5279,
    "vare": 5280,
    "izing": 5281,
    "\u2581Def": 5282,
    "icol": 5283,
    "\u00fcnd": 5284,
    "\u2581configuration": 5285,
    "estig": 5286,
    "III": 5287,
    "lam": 5288,
    "i\u00e8re": 5289,
    "\u2581Ear": 5290,
    "\u2581tu": 5291,
    "Ent": 5292,
    "\u2581Using": 5293,
    "\u2581\u043a\u043e\u043c": 5294,
    "cie": 5295,
    "\u2581proof": 5296,
    "\u2581invol": 5297,
    "\u2581History": 5298,
    "><": 5299,
    "\u2581AND": 5300,
    "avy": 5301,
    "\u2581relations": 5302,
    "${": 5303,
    "\u2581comes": 5304,
    "\u2581direction": 5305,
    "\u2581June": 5306,
    "\u2581Way": 5307,
    "Component": 5308,
    "ech": 5309,
    "\u2581Peter": 5310,
    "sg": 5311,
    "\u2581stra": 5312,
    "uct": 5313,
    "\u2581implementation": 5314,
    "attle": 5315,
    "\u2581cz": 5316,
    "plot": 5317,
    "\u2581played": 5318,
    "\"></": 5319,
    "\u2581five": 5320,
    "\u2581coll": 5321,
    "\u2581Charles": 5322,
    "Tra": 5323,
    "\u2581suo": 5324,
    "files": 5325,
    "entes": 5326,
    "response": 5327,
    "How": 5328,
    "\u2581Soci": 5329,
    "\u2581ign": 5330,
    "\u2581led": 5331,
    "\u2581German": 5332,
    "udo": 5333,
    "\u2581Du": 5334,
    "\u2581tim": 5335,
    "ounter": 5336,
    "\u2581attack": 5337,
    "uri": 5338,
    "\u2581\u0430\u0440": 5339,
    "esse": 5340,
    "ivil": 5341,
    "\u2581Ju": 5342,
    "\u2581vel": 5343,
    "matrix": 5344,
    "\u2581Mat": 5345,
    "gio": 5346,
    "\u2581Zeit": 5347,
    "VER": 5348,
    "has": 5349,
    "Connection": 5350,
    "\u2581ihr": 5351,
    "\u2581attribute": 5352,
    "\u2581discuss": 5353,
    "\u2581domain": 5354,
    "bind": 5355,
    "\u2581Sec": 5356,
    "rik": 5357,
    "close": 5358,
    "gin": 5359,
    "\u2581love": 5360,
    "anto": 5361,
    "gent": 5362,
    "aba": 5363,
    "jango": 5364,
    "bi": 5365,
    "\u2581obser": 5366,
    "itting": 5367,
    "\u2581\u0440\u0443": 5368,
    "}=": 5369,
    "agen": 5370,
    "BC": 5371,
    "some": 5372,
    "\u2581Bu": 5373,
    "\u2581soci": 5374,
    "\u2581individual": 5375,
    "\u2581deal": 5376,
    "\u2581outside": 5377,
    "rio": 5378,
    "Exec": 5379,
    "andid": 5380,
    "\u2581business": 5381,
    "\u2581tempor": 5382,
    "\u2581Tur": 5383,
    "\u2581(!": 5384,
    "riter": 5385,
    "\u2581google": 5386,
    "]:": 5387,
    "itte": 5388,
    "xi": 5389,
    "\u2581\u041f\u0430": 5390,
    "hol": 5391,
    "\u043d\u044c": 5392,
    "ring": 5393,
    "\u2581sul": 5394,
    "\u043d\u043e\u0441\u0442\u0438": 5395,
    "_.": 5396,
    "gar": 5397,
    "Task": 5398,
    "\u2581Check": 5399,
    "\u2581modern": 5400,
    "\u2581win": 5401,
    "uster": 5402,
    "han": 5403,
    "formation": 5404,
    "void": 5405,
    "\u2581\u0444\u0438": 5406,
    "\u2581useful": 5407,
    "\u2581England": 5408,
    "los": 5409,
    "etime": 5410,
    "eur": 5411,
    "\u2581unique": 5412,
    "\u2581\u043a\u0430\u043a": 5413,
    "ying": 5414,
    "obj": 5415,
    "uid": 5416,
    "\u2581windows": 5417,
    "\u2581distance": 5418,
    "\u2581nombre": 5419,
    "\u0456\u044f": 5420,
    "ocus": 5421,
    "ahn": 5422,
    "ierte": 5423,
    "\u2581dar": 5424,
    "SI": 5425,
    "long": 5426,
    "asta": 5427,
    "iven": 5428,
    "\u2581told": 5429,
    "\u2581Gru": 5430,
    "foo": 5431,
    "\u2581calling": 5432,
    "iembre": 5433,
    "\u2581future": 5434,
    "pr\u00e8s": 5435,
    "leep": 5436,
    "avigation": 5437,
    "POST": 5438,
    "\u2581described": 5439,
    "\u2581noch": 5440,
    "unit": 5441,
    "allen": 5442,
    "\u2581branch": 5443,
    "fa": 5444,
    "\u2581fill": 5445,
    "\u2581obj": 5446,
    "\u2581tree": 5447,
    "\u2581wurden": 5448,
    "\u2581Liter": 5449,
    "rot": 5450,
    "split": 5451,
    "emein": 5452,
    "module": 5453,
    "CA": 5454,
    "\u2581operator": 5455,
    "\u2581wrote": 5456,
    "\u2581Jack": 5457,
    "ologie": 5458,
    "\u2581Ant": 5459,
    "\u0442\u0435\u0440": 5460,
    "stream": 5461,
    "\u2581Que": 5462,
    "epsilon": 5463,
    "non": 5464,
    "stein": 5465,
    "\u2581simpl": 5466,
    "pub": 5467,
    "\u2581July": 5468,
    "\u2581nature": 5469,
    "\u2581Database": 5470,
    "\u00f3l": 5471,
    "\u043d\u0438\u043c": 5472,
    "\u2581VI": 5473,
    "\u00eatre": 5474,
    "iles": 5475,
    "\u2581wel": 5476,
    "'),": 5477,
    "\u2581mut": 5478,
    "location": 5479,
    "\u2581therefore": 5480,
    "elli": 5481,
    "\u2581\u0406": 5482,
    "n\u00e9": 5483,
    "\u2581\u0430\u0432": 5484,
    "ledge": 5485,
    "\u2581conver": 5486,
    "\u00edm": 5487,
    "\u2581XV": 5488,
    "vider": 5489,
    "\u2581January": 5490,
    "\u2581usually": 5491,
    "\u2581released": 5492,
    "\u2581Mi": 5493,
    "Head": 5494,
    "iller": 5495,
    "\u2581jan": 5496,
    "\u2581letter": 5497,
    "produ": 5498,
    "rd": 5499,
    "\u2581Cam": 5500,
    ",'": 5501,
    "\u2581\u0426": 5502,
    "\u2581push": 5503,
    "update": 5504,
    "\u2581maybe": 5505,
    "Http": 5506,
    "@\"": 5507,
    "\u043c\u0435\u0440": 5508,
    "service": 5509,
    "parse": 5510,
    "\u2581dass": 5511,
    "\u00ean": 5512,
    ")\"": 5513,
    "more": 5514,
    "/*": 5515,
    "\u2581mas": 5516,
    "\u2581likely": 5517,
    "\u2581material": 5518,
    "\u2581[[": 5519,
    "\u2581longer": 5520,
    "bal": 5521,
    "\u2581Archiv": 5522,
    "igt": 5523,
    "\u2581egy": 5524,
    "idge": 5525,
    "igu": 5526,
    "conf": 5527,
    "\u2581inc": 5528,
    "consult\u00e9": 5529,
    "\u2581mai": 5530,
    "Work": 5531,
    "\u2581\u0433\u0440\u0430": 5532,
    "\u2581October": 5533,
    "\u2581global": 5534,
    "\u2581sel": 5535,
    "\u2581municip": 5536,
    "\u2581viol": 5537,
    "\u2581Does": 5538,
    "\u2581\\[": 5539,
    "\u0441\u043a\u043e\u043c": 5540,
    "\u2581compos": 5541,
    "\u0431\u0440\u044f": 5542,
    "\u0432\u044f": 5543,
    "\u2581respons": 5544,
    "\u2581considered": 5545,
    "\u2581Japan": 5546,
    "pes": 5547,
    "osto": 5548,
    "\u2581milit": 5549,
    "SP": 5550,
    "\u0441\u044b": 5551,
    "attr": 5552,
    "cil": 5553,
    "irectory": 5554,
    "aving": 5555,
    "\u2581Del": 5556,
    "\u2581prevent": 5557,
    "idade": 5558,
    "git": 5559,
    "iform": 5560,
    "outer": 5561,
    "inct": 5562,
    "level": 5563,
    "atever": 5564,
    "\u2581repe": 5565,
    "\u2581exc": 5566,
    "\u0434\u0430\u0440": 5567,
    "Style": 5568,
    "\u2581Thomas": 5569,
    "eline": 5570,
    "\u2581\u0436": 5571,
    "untime": 5572,
    "\u2581larg": 5573,
    "True": 5574,
    ".*": 5575,
    "creen": 5576,
    "yles": 5577,
    "\u2581transl": 5578,
    "\u2581\u0421\u043e": 5579,
    "ensions": 5580,
    "\u00e4l": 5581,
    "isse": 5582,
    "\u2581volt": 5583,
    "cially": 5584,
    "nik": 5585,
    ".]": 5586,
    "\u2581Stadt": 5587,
    "\u043c\u044b": 5588,
    "fill": 5589,
    "lov": 5590,
    "\u2581\"/": 5591,
    "Sp": 5592,
    "\u2581Air": 5593,
    "Call": 5594,
    "\u2581nur": 5595,
    "Check": 5596,
    "ience": 5597,
    "efined": 5598,
    "\u2581\u0432\u0440\u0435": 5599,
    "\u0142o": 5600,
    "dz": 5601,
    "\u2581\u043e\u0440": 5602,
    "iker": 5603,
    "owa": 5604,
    "\u043e\u0432\u0438\u0447": 5605,
    "r\u00e9": 5606,
    "OL": 5607,
    "\u2581linear": 5608,
    "\u2581export": 5609,
    "ahr": 5610,
    "icial": 5611,
    "Rep": 5612,
    "\u2581natural": 5613,
    "\u2581cop": 5614,
    "\u2581})": 5615,
    "\u00e7\u00f5es": 5616,
    "zz": 5617,
    "What": 5618,
    "\u2581House": 5619,
    "Ref": 5620,
    "inger": 5621,
    "\u2581taking": 5622,
    "n\u011b": 5623,
    "\u2581Einz": 5624,
    "\u2581dam": 5625,
    "\u2581issues": 5626,
    "Builder": 5627,
    "edit": 5628,
    "\u2581prz": 5629,
    "password": 5630,
    "Gener": 5631,
    "rim": 5632,
    "\u2581parts": 5633,
    "---": 5634,
    "iginal": 5635,
    "\u2581Sci": 5636,
    "\u2581mother": 5637,
    "rea": 5638,
    "\u2581container": 5639,
    "\u0434\u044f": 5640,
    "\u2581IP": 5641,
    "\u2581none": 5642,
    "\u2581followed": 5643,
    "\u2581ple": 5644,
    "\u2581measure": 5645,
    "\u2581tout": 5646,
    "Ext": 5647,
    "\u2581TV": 5648,
    "\u2581explain": 5649,
    "\u2581paper": 5650,
    "\u0441\u0442\u0456": 5651,
    "ws": 5652,
    "Wik": 5653,
    "\u2581mm": 5654,
    "\u2581Norm": 5655,
    "\u2581Server": 5656,
    "font": 5657,
    "ecause": 5658,
    "TR": 5659,
    "\u2581\u0431\u0438": 5660,
    "La": 5661,
    "\u2581ens": 5662,
    "\u2581retr": 5663,
    "\u2581Sil": 5664,
    "\u2581sequence": 5665,
    "arc": 5666,
    "IV": 5667,
    "z\u00e1": 5668,
    "\u2581Android": 5669,
    "\u2581Super": 5670,
    "\u2581roz": 5671,
    "ovie": 5672,
    "Om": 5673,
    "\u2581Well": 5674,
    "make": 5675,
    "orph": 5676,
    "\u2581Jer": 5677,
    "\u2581Ros": 5678,
    "reference": 5679,
    "\u2581features": 5680,
    "\u2581Ger": 5681,
    "\u2581Leg": 5682,
    "\u2581late": 5683,
    "\u2581additional": 5684,
    "\u2581flo": 5685,
    "\u2581\u0435\u0433\u043e": 5686,
    "\u2581algorithm": 5687,
    "BA": 5688,
    "kar": 5689,
    "IP": 5690,
    "]);": 5691,
    "\u2581appears": 5692,
    "yw": 5693,
    "\u2581temp": 5694,
    "\u2581aussi": 5695,
    "method": 5696,
    "\u2581pet": 5697,
    "strap": 5698,
    "arning": 5699,
    "\u2581cut": 5700,
    "\u2581Sa": 5701,
    "\u2581track": 5702,
    "\u2581employ": 5703,
    "\u2581inde": 5704,
    "rav": 5705,
    "\u2581generate": 5706,
    "bes": 5707,
    "arts": 5708,
    "Status": 5709,
    "uge": 5710,
    "alis": 5711,
    "\u2581override": 5712,
    "\u2581fi": 5713,
    "\u2581lost": 5714,
    "oted": 5715,
    "\u2581room": 5716,
    "\u2581calls": 5717,
    "\u2581consist": 5718,
    "\u0440\u0435\u043d": 5719,
    "\u2581village": 5720,
    "dist": 5721,
    "\u2581techn": 5722,
    "enza": 5723,
    "\u2581\u0440\u043e\u0437": 5724,
    "\u2581Catalog": 5725,
    "\u2581becom": 5726,
    "rows": 5727,
    "\u2581Nel": 5728,
    "comple": 5729,
    "\u2581premi": 5730,
    "\u2581rot": 5731,
    "\u2581Weblinks": 5732,
    "\u2581football": 5733,
    "\u2581compar": 5734,
    "\u2581live": 5735,
    "\u043a\u0438\u0445": 5736,
    "\u2581equival": 5737,
    "cape": 5738,
    "\u2581Gen": 5739,
    "nder": 5740,
    "\u2581Vis": 5741,
    "\u2581behind": 5742,
    "gers": 5743,
    "voke": 5744,
    "\u2581media": 5745,
    "EX": 5746,
    "that": 5747,
    "\u2581sono": 5748,
    "\u2581mysql": 5749,
    "ev": 5750,
    "\u2581rule": 5751,
    "\u0434\u043e\u0432": 5752,
    "acc": 5753,
    "\u2581WHERE": 5754,
    "\u0435\u043d\u0435": 5755,
    "Grid": 5756,
    "\u2581jul": 5757,
    "\u2581mort": 5758,
    "\u2581generated": 5759,
    "encia": 5760,
    "acter": 5761,
    "clud": 5762,
    "\u2581scen": 5763,
    "\u2581closed": 5764,
    "\u2581Michael": 5765,
    "\u2581mount": 5766,
    ")$,": 5767,
    "\u2581drop": 5768,
    "\u2581combin": 5769,
    "tocol": 5770,
    "\u2581goes": 5771,
    "\u2581geb": 5772,
    "MD": 5773,
    "\u2581Anton": 5774,
    "\u2581$(\"": 5775,
    "Tem": 5776,
    "\u2581ca": 5777,
    "\u2581instru": 5778,
    "eds": 5779,
    "\u2581tool": 5780,
    "mys": 5781,
    "\u2581route": 5782,
    "\"))": 5783,
    "\u043f\u0440\u0435": 5784,
    "\u2581float": 5785,
    "\u2581services": 5786,
    "\u2581\u0447\u0438": 5787,
    "\u043a\u0456": 5788,
    "embly": 5789,
    "aker": 5790,
    "\u2581Son": 5791,
    "\u2581Math": 5792,
    "asse": 5793,
    "ously": 5794,
    "lications": 5795,
    "\u2581ru": 5796,
    "\u2581\u0449\u043e": 5797,
    "\u2581Const": 5798,
    "\u2581immedi": 5799,
    "FO": 5800,
    "oro": 5801,
    "\u2581production": 5802,
    "rei": 5803,
    "\u2581jquery": 5804,
    "annt": 5805,
    "\u2581While": 5806,
    "\u2581sn": 5807,
    "\u2581\u0433\u043e\u0434\u0438": 5808,
    "Format": 5809,
    "\u2581star": 5810,
    "\u2581Sen": 5811,
    "\u2581ko": 5812,
    "NAME": 5813,
    "\u2581pr\u00e9s": 5814,
    "cha": 5815,
    "what": 5816,
    "omin": 5817,
    "endant": 5818,
    "hy": 5819,
    "\u2581observ": 5820,
    "\u2581prefer": 5821,
    "\u0443\u043d": 5822,
    "\u2581constructor": 5823,
    "bs": 5824,
    "\u2581mac": 5825,
    "\u2581Bre": 5826,
    "\u2581Instit": 5827,
    "\u2581story": 5828,
    "\u2581symbol": 5829,
    "eles": 5830,
    "\u00dfe": 5831,
    "asing": 5832,
    "\u2581west": 5833,
    "ians": 5834,
    "\u2581master": 5835,
    "\u0435\u0437": 5836,
    "\u2581ways": 5837,
    "bm": 5838,
    "\u2581pick": 5839,
    "\u2581depart": 5840,
    "Back": 5841,
    "enk": 5842,
    "lipse": 5843,
    "\u2581math": 5844,
    "\u2581Francis": 5845,
    "\u2581December": 5846,
    "fs": 5847,
    "rum": 5848,
    "\u2581development": 5849,
    "LT": 5850,
    "ernel": 5851,
    "\u2581True": 5852,
    "\u2581More": 5853,
    "rangle": 5854,
    "\u2581conditions": 5855,
    "Options": 5856,
    "\u2581gli": 5857,
    "\u2581operation": 5858,
    "\u00e9k": 5859,
    "acht": 5860,
    "ights": 5861,
    "\u2581mist": 5862,
    "anda": 5863,
    "\u2581energy": 5864,
    "\u2581\u0436\u0435": 5865,
    "\u2581women": 5866,
    "akt": 5867,
    "\u2581CH": 5868,
    "gebra": 5869,
    "\u2581meet": 5870,
    "iu": 5871,
    "well": 5872,
    "\u00f6l": 5873,
    "\u2581government": 5874,
    "\u2581Jos": 5875,
    "ieg": 5876,
    "\u2581syntax": 5877,
    "fix": 5878,
    "\u2581Pet": 5879,
    "jquery": 5880,
    "\u2581card": 5881,
    "\u2581principal": 5882,
    "\u2581dru": 5883,
    "\u2581territ": 5884,
    "\u2581\u043f\u043e\u0432": 5885,
    "\u2581SS": 5886,
    "\u0440\u0438\u0438": 5887,
    "tres": 5888,
    "agne": 5889,
    "lying": 5890,
    "tilde": 5891,
    "bern": 5892,
    "enter": 5893,
    "Per": 5894,
    "\u2581somet": 5895,
    "Load": 5896,
    "lice": 5897,
    "\u2581sous": 5898,
    "\u2581Louis": 5899,
    "\u2581logic": 5900,
    "\u2581Other": 5901,
    "\u2581cir": 5902,
    "\u00e9v": 5903,
    "chron": 5904,
    "\u2581han": 5905,
    "\u2581margin": 5906,
    "Window": 5907,
    "\u00e8res": 5908,
    "nych": 5909,
    "push": 5910,
    "bolds": 5911,
    "\u2581layout": 5912,
    "\u2581[`": 5913,
    "Char": 5914,
    "\u2581Cap": 5915,
    "boldsymbol": 5916,
    "\u2581Roman": 5917,
    "\u2581Max": 5918,
    ":(": 5919,
    "\u2581Code": 5920,
    "ising": 5921,
    "\u2581states": 5922,
    "\u2581existing": 5923,
    "support": 5924,
    "\u2581research": 5925,
    "licate": 5926,
    "vari": 5927,
    "\u2581bij": 5928,
    "\u2581appe": 5929,
    "\u2581happens": 5930,
    "\\\"": 5931,
    "\u2581concern": 5932,
    "west": 5933,
    "\u2581saying": 5934,
    "pid": 5935,
    "\u2581recogn": 5936,
    "\u2581Het": 5937,
    "Child": 5938,
    "\u2581cs": 5939,
    "\\,": 5940,
    "\u2581clean": 5941,
    "lections": 5942,
    "access": 5943,
    "\u0432\u0443": 5944,
    "\u043f\u0440\u043e": 5945,
    "acity": 5946,
    "\u2581Off": 5947,
    "\u2581easily": 5948,
    "\u00e8que": 5949,
    "\u2581jako": 5950,
    "\u2581iz": 5951,
    "\u2581Ha": 5952,
    "\u2581Det": 5953,
    "\u2581forma": 5954,
    "sche": 5955,
    "swers": 5956,
    "\u2581offer": 5957,
    "quired": 5958,
    "Users": 5959,
    "\u2581subst": 5960,
    ">(": 5961,
    "\u2581ground": 5962,
    "unn": 5963,
    "rod": 5964,
    "spe": 5965,
    "ursor": 5966,
    "\u2581leave": 5967,
    "erk": 5968,
    "\u2581tal": 5969,
    "\u2581bottom": 5970,
    "IO": 5971,
    "\u2581popular": 5972,
    "igo": 5973,
    "\u2581Time": 5974,
    "values": 5975,
    "\u2581Loc": 5976,
    "\u2581Club": 5977,
    "\u2581anche": 5978,
    "ia\u0142": 5979,
    "\u0456\u0457": 5980,
    "Omega": 5981,
    "\u2581located": 5982,
    "Url": 5983,
    "\u2581Esp": 5984,
    "\u043b\u044b": 5985,
    "\u0446\u044c": 5986,
    "ulate": 5987,
    "\u2581join": 5988,
    "aves": 5989,
    "vet": 5990,
    "lio": 5991,
    "remove": 5992,
    "\u2581token": 5993,
    "\u2581optim": 5994,
    "\u2581claim": 5995,
    "ological": 5996,
    "\u2581css": 5997,
    "\u2581although": 5998,
    "\u2581priv": 5999,
    "\u2581Ba": 6000,
    "\u00fcl": 6001,
    "entication": 6002,
    "\u2581ven": 6003,
    "Server": 6004,
    "\u2581Cong": 6005,
    "NET": 6006,
    "CON": 6007,
    "dt": 6008,
    "perties": 6009,
    "\u2581epis": 6010,
    "wikipedia": 6011,
    "\u2581engine": 6012,
    "\u2581fer": 6013,
    "getElement": 6014,
    "\u2581Cla": 6015,
    "\u0159\u00ed": 6016,
    "\u2581rom": 6017,
    "varepsilon": 6018,
    "\u2581prime": 6019,
    "istry": 6020,
    "pected": 6021,
    "orage": 6022,
    "\u2581touch": 6023,
    "\u2581['": 6024,
    "\u2581dan": 6025,
    "Em": 6026,
    "aciones": 6027,
    "Can": 6028,
    "\u2581whom": 6029,
    "\u2581behavior": 6030,
    "\u2581strings": 6031,
    "\u2581Europ": 6032,
    "\u2581Rom": 6033,
    "circ": 6034,
    "\u2581pun": 6035,
    "\u2581register": 6036,
    "buntu": 6037,
    "rain": 6038,
    "Ob": 6039,
    "TA": 6040,
    "\u2581sometimes": 6041,
    "\u2581ment": 6042,
    "\u2581integer": 6043,
    "\u2581Jac": 6044,
    "legate": 6045,
    "othing": 6046,
    "\u2581sound": 6047,
    "laces": 6048,
    "\u2581\u0411\u0430": 6049,
    "rb": 6050,
    "di": 6051,
    "\u043b\u0435\u043d\u0438\u044f": 6052,
    "\u2581themselves": 6053,
    "\u2581Black": 6054,
    "\u2581settings": 6055,
    "\u2581norm": 6056,
    "\u2581runs": 6057,
    "\u2581NOT": 6058,
    "KE": 6059,
    "\u2581perhaps": 6060,
    "\u2581\u042f": 6061,
    "\u2581mol": 6062,
    "\u2581ans": 6063,
    "atre": 6064,
    "\u2581Dies": 6065,
    "Token": 6066,
    "anie": 6067,
    "\u2581allowed": 6068,
    "Range": 6069,
    "\u2581Gro": 6070,
    "via": 6071,
    "utorial": 6072,
    "ensor": 6073,
    "estival": 6074,
    ");\r": 6075,
    "\u043a\u0440\u0430\u0457": 6076,
    "\u2581turned": 6077,
    "scope": 6078,
    "\u2581bien": 6079,
    "=$": 6080,
    "\u2581extension": 6081,
    "atore": 6082,
    "\u2581\u0420\u043e": 6083,
    "\u2581specify": 6084,
    "edu": 6085,
    "Datos": 6086,
    "\u2581stored": 6087,
    "\u2581parse": 6088,
    "\u2581answers": 6089,
    "ills": 6090,
    "\u2581heard": 6091,
    "lu": 6092,
    "\u2581THE": 6093,
    "\u2581g\u00e9n": 6094,
    "\u2581ful": 6095,
    "ez": 6096,
    "\u2581Prem": 6097,
    "then": 6098,
    "dp": 6099,
    "\u0441\u044c\u043a\u043e\u0433\u043e": 6100,
    "\u2581Si": 6101,
    "\u00e7o": 6102,
    "Edit": 6103,
    "\u043a\u0456\u0432": 6104,
    "\u2581\u041b\u0438": 6105,
    "\u2581Sing": 6106,
    "\u2581categ": 6107,
    "Equ": 6108,
    "\u2581guer": 6109,
    "Width": 6110,
    "\u2581Christian": 6111,
    "stat": 6112,
    "Write": 6113,
    "\u2581woman": 6114,
    "wood": 6115,
    "Vis": 6116,
    "\u0440\u0430\u0437": 6117,
    "\u2581$$\\": 6118,
    "oder": 6119,
    "\u2581bool": 6120,
    "\u2581international": 6121,
    "\u043d\u043e\u0441\u0442\u044c": 6122,
    "\u2581Richard": 6123,
    "\u2581addition": 6124,
    "\u2581Music": 6125,
    "\u2581aber": 6126,
    "t\u00f3": 6127,
    "\u2581hier": 6128,
    "ugh": 6129,
    "\u2581pob": 6130,
    "\u2581tables": 6131,
    "Do": 6132,
    "\u2581higher": 6133,
    "psi": 6134,
    "r\u00e1": 6135,
    "\u2581active": 6136,
    "\u2581Table": 6137,
    "\u045a\u0435": 6138,
    "\u2581description": 6139,
    "\u2581seemed": 6140,
    "\u00edst": 6141,
    "\u2581myself": 6142,
    "\u2581menu": 6143,
    "del": 6144,
    "\u2581\u017e": 6145,
    "ele": 6146,
    "Aut": 6147,
    "\u2581\u0433\u0440\u0443": 6148,
    "mut": 6149,
    "oon": 6150,
    "asc": 6151,
    "bug": 6152,
    "\u2581moved": 6153,
    "CL": 6154,
    "\u2581datas": 6155,
    "SO": 6156,
    "\u043e\u043b\u043e": 6157,
    "\u2581Georg": 6158,
    "\u2581reach": 6159,
    ":\"": 6160,
    "\u2581evalu": 6161,
    "\u2581Hel": 6162,
    "\u2581River": 6163,
    "\u2581\u0410\u0440": 6164,
    "////": 6165,
    "\u2581sets": 6166,
    "\u2581Olymp": 6167,
    "Adapter": 6168,
    ".'": 6169,
    "overn": 6170,
    "\u2581Lord": 6171,
    "!--": 6172,
    "jpg": 6173,
    "imento": 6174,
    "\u2581Prof": 6175,
    "\u2581achieve": 6176,
    "}:": 6177,
    "\u2581incor": 6178,
    "\u2581onder": 6179,
    "engl": 6180,
    "ABLE": 6181,
    "\u2581Mary": 6182,
    "\u2581waren": 6183,
    "lage": 6184,
    "Dec": 6185,
    "\u0430\u043d\u0433\u043b": 6186,
    "encias": 6187,
    "\u043b\u0435\u0439": 6188,
    "\u2581Machine": 6189,
    "\u2581\u0410\u043d": 6190,
    "uda": 6191,
    "\u2581\u015b": 6192,
    "\u2581XX": 6193,
    "only": 6194,
    "\u043b\u0435\u043d\u0438\u0435": 6195,
    "\u2581tambi\u00e9n": 6196,
    "nej": 6197,
    "\u2581relative": 6198,
    "\u2581hours": 6199,
    "\u2581indeed": 6200,
    "undo": 6201,
    "ingu": 6202,
    "area": 6203,
    "\u2581Create": 6204,
    "beit": 6205,
    "\u2581removed": 6206,
    "master": 6207,
    "haus": 6208,
    "\u2581Bern": 6209,
    "\u2581speed": 6210,
    "\u2581Bay": 6211,
    "\u2581Att": 6212,
    "\u2581None": 6213,
    "application": 6214,
    "\u00fcd": 6215,
    "\u2581fit": 6216,
    "\u2581Maria": 6217,
    "\u2581nord": 6218,
    "\u2581split": 6219,
    "\u2581stru": 6220,
    "\u2581official": 6221,
    "\u2581execute": 6222,
    "ouve": 6223,
    "{{": 6224,
    "\u2581Ap": 6225,
    "\u2581\u043a\u0443": 6226,
    "IL": 6227,
    "\u2581^": 6228,
    "dim": 6229,
    "\u2581setup": 6230,
    "\u0441\u043a": 6231,
    "\u2581share": 6232,
    "\u2581minutes": 6233,
    "gle": 6234,
    "oco": 6235,
    "stell": 6236,
    "\u2581Coun": 6237,
    "\u2581temper": 6238,
    "keit": 6239,
    "\u0441\u044c\u043a\u0438\u0439": 6240,
    "ao": 6241,
    "\u2581Long": 6242,
    "(&": 6243,
    "\u043a\u0430\u043d": 6244,
    "\u2581dens": 6245,
    "But": 6246,
    "XX": 6247,
    "DATE": 6248,
    "gan": 6249,
    ".).": 6250,
    "\u2581entry": 6251,
    "install": 6252,
    "\u2581\u0437\u043d\u0430": 6253,
    "\u2581Som": 6254,
    "Command": 6255,
    "\u00dfen": 6256,
    "\u2581starting": 6257,
    "\u2581sto": 6258,
    "IG": 6259,
    "\u2581minim": 6260,
    "\u2581explicit": 6261,
    "\u2581bytes": 6262,
    "\u2581party": 6263,
    "tober": 6264,
    "\u2581Grand": 6265,
    "\u2581Vor": 6266,
    "\u2581leur": 6267,
    "Document": 6268,
    "erc": 6269,
    "ensive": 6270,
    "CP": 6271,
    "env": 6272,
    "\u2581arguments": 6273,
    "\u2581Gran": 6274,
    "arily": 6275,
    "\u2581lin": 6276,
    "tn": 6277,
    "(-": 6278,
    "geq": 6279,
    "\u2581Famil": 6280,
    "\u2581\u0411\u043e": 6281,
    "\u2581tour": 6282,
    "\u2581nav": 6283,
    "\u2581properly": 6284,
    "\u2581Mrs": 6285,
    "\u2581Mel": 6286,
    "\u2581scale": 6287,
    "astic": 6288,
    "ds": 6289,
    "\u2581Sir": 6290,
    "\u2581Church": 6291,
    "}^{\\": 6292,
    "you": 6293,
    "/.": 6294,
    "So": 6295,
    "\u2581brought": 6296,
    "\u2581role": 6297,
    "\u2581Sur": 6298,
    "\u2581fond": 6299,
    "\u2581ges": 6300,
    "\u017ce": 6301,
    "eten": 6302,
    "\u2581\u00e9tait": 6303,
    "SER": 6304,
    "\u2581\u043a\u043e\u0442\u043e\u0440\u044b": 6305,
    "\u2581equation": 6306,
    "aspx": 6307,
    "\u2581Afr": 6308,
    "\u2581dit": 6309,
    "empty": 6310,
    "alement": 6311,
    "wrap": 6312,
    "\u2581Bet": 6313,
    "\u2581collect": 6314,
    "\u2581git": 6315,
    "\u2581vie": 6316,
    "\u2581..": 6317,
    "\u0440\u043e\u0439": 6318,
    "\u2581<?": 6319,
    "\u2581educ": 6320,
    "kl": 6321,
    "ensis": 6322,
    "\u2581OR": 6323,
    "\u2581Hi": 6324,
    "\u2581Cour": 6325,
    "\u0431\u044b": 6326,
    "cert": 6327,
    "\u2581Ges": 6328,
    "essor": 6329,
    "Main": 6330,
    "\u2581\u043b\u044e": 6331,
    "cade": 6332,
    "dot": 6333,
    "augh": 6334,
    "hib": 6335,
    "\u2581automatically": 6336,
    "\u2581spir": 6337,
    "present": 6338,
    "\u2581February": 6339,
    "\u2581Elle": 6340,
    "custom": 6341,
    "\u2581proget": 6342,
    "\u2581administr": 6343,
    "AA": 6344,
    "\u2581born": 6345,
    "\u2581College": 6346,
    "athol": 6347,
    "`)": 6348,
    "ierre": 6349,
    "\u2581ran": 6350,
    "\u2581profession": 6351,
    "ogen": 6352,
    "}_{\\": 6353,
    "\u2581activity": 6354,
    "\u2581scroll": 6355,
    "\u2581prove": 6356,
    "ibrary": 6357,
    "eries": 6358,
    "Read": 6359,
    "year": 6360,
    "\u2581lang": 6361,
    "Det": 6362,
    "\u2581knew": 6363,
    "\u2581protected": 6364,
    "\u2581wor": 6365,
    "\u2581effic": 6366,
    "\u2581r\u00e9g": 6367,
    "\u2581theory": 6368,
    "\u2581published": 6369,
    "real": 6370,
    "\u2581Tour": 6371,
    "\u2581durante": 6372,
    "\u00e4s": 6373,
    "\u2581positive": 6374,
    "\u2581forward": 6375,
    "\u2581Rel": 6376,
    "{\"": 6377,
    "park": 6378,
    "\u2581Um": 6379,
    "\u2581eer": 6380,
    "enta": 6381,
    "\u2581imag": 6382,
    "\u043d\u043e\u0457": 6383,
    "piel": 6384,
    "\u2581jQuery": 6385,
    "isme": 6386,
    "chni": 6387,
    "organ": 6388,
    "\u2581args": 6389,
    "oir": 6390,
    "heim": 6391,
    "rian": 6392,
    "eless": 6393,
    "uses": 6394,
    "\u0434\u0438\u043d": 6395,
    "ici\u00f3n": 6396,
    "\u2581indust": 6397,
    "\u2581wish": 6398,
    "\u00e1ny": 6399,
    "oca": 6400,
    "\u2581angular": 6401,
    "ieved": 6402,
    "\u2581occur": 6403,
    "SELECT": 6404,
    "onia": 6405,
    "admin": 6406,
    "\u2581Best": 6407,
    "\u2581\u044d\u0442\u043e": 6408,
    "\u043e\u0433\u0440\u0430": 6409,
    "\u2581loss": 6410,
    "\u2581bal": 6411,
    "\u2581\u0420\u043e\u0441": 6412,
    "\u2581career": 6413,
    "\u2581\u043f\u0435": 6414,
    "IX": 6415,
    "\u2581fall": 6416,
    "\u2581Rob": 6417,
    "\u2581OP": 6418,
    "ened": 6419,
    "graphics": 6420,
    "\u2581coming": 6421,
    "Update": 6422,
    "\u2581died": 6423,
    "eden": 6424,
    "\u2581abs": 6425,
    "\u2581inner": 6426,
    "\u2581trav": 6427,
    "\u0441\u0442\u043e\u044f": 6428,
    "z\u0105": 6429,
    "\u00e9p": 6430,
    "\u2581Group": 6431,
    "\u2581cel": 6432,
    "\u2581stuff": 6433,
    "\u2581situation": 6434,
    "\u2581${": 6435,
    "acle": 6436,
    "\u2581purpose": 6437,
    "\u2581Fire": 6438,
    "\u2581Oh": 6439,
    "\u2581Second": 6440,
    "\u2581upload": 6441,
    "osta\u0142": 6442,
    "\u044e\u0449\u0438": 6443,
    "Auth": 6444,
    "\u2581showing": 6445,
    "\u2581completely": 6446,
    "avel": 6447,
    "bd": 6448,
    "\u2581proced": 6449,
    "\u2581\u00d6": 6450,
    "control": 6451,
    "\u2581thank": 6452,
    "undred": 6453,
    "\u2581tom": 6454,
    "\u2581examples": 6455,
    "\u2581remember": 6456,
    "\u2581\u0440\u0430\u0431\u043e": 6457,
    "\u2581possib": 6458,
    "\u2581detect": 6459,
    "\u2581poor": 6460,
    "\u2581Op": 6461,
    "\u2581century": 6462,
    "utter": 6463,
    "\u2581login": 6464,
    "unst": 6465,
    "Output": 6466,
    "\u2581otherwise": 6467,
    "lan": 6468,
    "\u0442\u0443\u0440": 6469,
    "\u2581\u0441\u043e\u0432": 6470,
    "\u2581groups": 6471,
    "rip": 6472,
    "\u2581shell": 6473,
    "\u2581district": 6474,
    "\u2581records": 6475,
    "\u2581si\u00e8": 6476,
    "fortun": 6477,
    "enty": 6478,
    "\u2581Tre": 6479,
    "\u2581changing": 6480,
    "\u0441\u043b\u0435\u0434": 6481,
    "aught": 6482,
    "\u2581deep": 6483,
    "subset": 6484,
    "agy": 6485,
    "endar": 6486,
    "jax": 6487,
    "OM": 6488,
    "El": 6489,
    "imate": 6490,
    "ardo": 6491,
    "\u2581plot": 6492,
    "\u2581visit": 6493,
    "\u2581bug": 6494,
    "\u2581\u0432\u0441\u0435": 6495,
    "\u2581opened": 6496,
    "\u2581repla": 6497,
    "\u2581Henry": 6498,
    "\u2581pp": 6499,
    "bas": 6500,
    "\u2581dark": 6501,
    "\u2581Martin": 6502,
    "\u2581resource": 6503,
    "iling": 6504,
    "\u2581watch": 6505,
    "replace": 6506,
    "\u2581release": 6507,
    "Location": 6508,
    "\u2581learning": 6509,
    "menu": 6510,
    "\u2581allows": 6511,
    "\u044a\u0440": 6512,
    "Length": 6513,
    "\u2581whatever": 6514,
    "\u2581pages": 6515,
    "\u2581compiler": 6516,
    "\u2581\u0442\u0430\u043a\u0436\u0435": 6517,
    "\u2581Pan": 6518,
    "command": 6519,
    "\u2581road": 6520,
    "\u2581unless": 6521,
    "`?": 6522,
    "\u2581discover": 6523,
    "\u2581\u043e\u043d": 6524,
    "}]": 6525,
    "bour": 6526,
    "\u2581Could": 6527,
    "\u2581regex": 6528,
    "\u2581ps": 6529,
    "CD": 6530,
    "\u0438\u0437": 6531,
    "\u2581wife": 6532,
    "amenti": 6533,
    "\u2581fair": 6534,
    "\u2581DB": 6535,
    "\u2581Cup": 6536,
    "enen": 6537,
    "ajax": 6538,
    "oth\u00e8que": 6539,
    "\u2581seiner": 6540,
    "icker": 6541,
    "\u00e1m": 6542,
    "exchange": 6543,
    "oles": 6544,
    "IF": 6545,
    "\u2581\u0414\u043e": 6546,
    "ohn": 6547,
    "\u2581grow": 6548,
    "\u2581Thus": 6549,
    "spec": 6550,
    "\u2581hatte": 6551,
    "#,": 6552,
    "allel": 6553,
    "\u2581rate": 6554,
    "\u2581central": 6555,
    "\u2581Van": 6556,
    "iforn": 6557,
    "Run": 6558,
    "\u2581study": 6559,
    "\u2581XML": 6560,
    "\u2581Che": 6561,
    "\u2581beaut": 6562,
    "mid": 6563,
    "\u2581advance": 6564,
    "Ver": 6565,
    "\u0442\u044f": 6566,
    "\u2581hands": 6567,
    "\u2581lay": 6568,
    "\u2581\u0161": 6569,
    "\u2581OS": 6570,
    "\u2581{}": 6571,
    "Pre": 6572,
    "\u2581Hall": 6573,
    "imp": 6574,
    "\u2581sun": 6575,
    "\u2581steps": 6576,
    "\u2581jud": 6577,
    "qui": 6578,
    "\u2581boot": 6579,
    "\u2581%>": 6580,
    "\u2581\u0412\u0430": 6581,
    "nost": 6582,
    "\u2581nem": 6583,
    "\u2581pen": 6584,
    "Open": 6585,
    "\u2581church": 6586,
    "\u043a\u043e\u043d": 6587,
    "\u2581average": 6588,
    "\u2581comments": 6589,
    "\u2581corresponding": 6590,
    "levant": 6591,
    "\u2581bed": 6592,
    "\u2581meaning": 6593,
    "Version": 6594,
    "Link": 6595,
    "bel": 6596,
    "\u2581extract": 6597,
    "\u015b\u0107": 6598,
    "\u2581IV": 6599,
    "\u2581Ir": 6600,
    "\u2581computer": 6601,
    "\u2581affect": 6602,
    "\u2581\u0421\u0442\u0430": 6603,
    "AX": 6604,
    "sort": 6605,
    "\u2581species": 6606,
    "\u2581Oper": 6607,
    "\u2581hash": 6608,
    "ches": 6609,
    "\u2581Einzeln": 6610,
    "\u2581keys": 6611,
    "\u2581marzo": 6612,
    "\u2581interpret": 6613,
    "hood": 6614,
    "\u2581coordin": 6615,
    "\u00f6s": 6616,
    "rage": 6617,
    "etz": 6618,
    "iza": 6619,
    "\u0434\u0435\u0440": 6620,
    "\u00fct": 6621,
    "^*": 6622,
    "\u2581modify": 6623,
    "\u2581termin": 6624,
    "\u2581cred": 6625,
    "zon": 6626,
    "\u043d\u0443\u044e": 6627,
    "\u2581mie": 6628,
    "\u2581''": 6629,
    "\u2581Mos": 6630,
    "\u2581connected": 6631,
    "NO": 6632,
    "\u2581compile": 6633,
    "\u2581\"\\": 6634,
    "\u2581cat": 6635,
    "fiddle": 6636,
    "uta": 6637,
    "Access": 6638,
    "\u2581Sto": 6639,
    "\u2581Bur": 6640,
    "\u2581north": 6641,
    "Gamma": 6642,
    "\u2581alloc": 6643,
    "Init": 6644,
    "\u2581Link": 6645,
    "ialize": 6646,
    "Impl": 6647,
    "oupe": 6648,
    "ropri": 6649,
    "\u2581Gold": 6650,
    "\u2581solo": 6651,
    "\u2581Dist": 6652,
    ",-": 6653,
    "nav": 6654,
    "\u2581alert": 6655,
    "esis": 6656,
    "\u2581Os": 6657,
    "///": 6658,
    "\u2581feb": 6659,
    "\u2581-->": 6660,
    "foot": 6661,
    "\u2581Fried": 6662,
    "\u2581Einzelnach": 6663,
    "\u2581rev": 6664,
    "zeit": 6665,
    "\u2581Stat": 6666,
    "\u2581Seg": 6667,
    "\u2581blo": 6668,
    "wick": 6669,
    "EL": 6670,
    "caption": 6671,
    "header": 6672,
    "\u2581president": 6673,
    "\u2581multip": 6674,
    "\u2581Einzelnachweise": 6675,
    "\u2581seine": 6676,
    "?\u201d": 6677,
    "Function": 6678,
    "\u2581Stand": 6679,
    "\u2581Function": 6680,
    "\u2581?>": 6681,
    "\u2581Bill": 6682,
    "\u2581spect": 6683,
    "\u2581redirect": 6684,
    "rupt": 6685,
    "\u2581walk": 6686,
    "\u0432\u0448\u0438": 6687,
    "springframework": 6688,
    "place": 6689,
    "\u00e9ho": 6690,
    "Entity": 6691,
    "\u2581Service": 6692,
    "inte": 6693,
    "\u2581training": 6694,
    "\u2581(`": 6695,
    "\u0444\u043e\u0440": 6696,
    "\u2581\u043a\u0440\u0430": 6697,
    "aur": 6698,
    "\u2581fetch": 6699,
    "\u2581\u2020": 6700,
    "\u2581m\u00eame": 6701,
    "\u2581('": 6702,
    "atively": 6703,
    "\u2581execut": 6704,
    "\u00e4ch": 6705,
    "\u2581Catalogue": 6706,
    "based": 6707,
    "Attribute": 6708,
    "\u2581spring": 6709,
    "phone": 6710,
    "\u0442\u0440\u0430": 6711,
    "\u2581\u043f\u0438": 6712,
    "\u0442\u0435\u0440\u0430": 6713,
    "\u2581`\\": 6714,
    "\u2581Od": 6715,
    "One": 6716,
    "send": 6717,
    "bon": 6718,
    "\u2581\u00b0": 6719,
    "MO": 6720,
    "\u2581asking": 6721,
    "\u2581o\u00f9": 6722,
    "\u2581ing\u00e5r": 6723,
    "\u2581testing": 6724,
    "\u2581\u0444\u0430": 6725,
    "\u2581Book": 6726,
    "imm": 6727,
    "\u2581progress": 6728,
    "bro": 6729,
    "First": 6730,
    "\u2581phot": 6731,
    "\u2581ON": 6732,
    "Template": 6733,
    "developer": 6734,
    "annot": 6735,
    "\u2581>=": 6736,
    "mission": 6737,
    "\u2581kt\u00f3": 6738,
    "pc": 6739,
    "bach": 6740,
    "zent": 6741,
    "ued": 6742,
    "\u2581ones": 6743,
    "\u0458\u0438": 6744,
    "\u2581rout": 6745,
    "\u2581\u041a\u0438": 6746,
    "Post": 6747,
    "\u0446\u0456\u0457": 6748,
    "\u2581Vir": 6749,
    "nek": 6750,
    "aging": 6751,
    "\u2581\u043e\u043a": 6752,
    "izont": 6753,
    "\u2581agosto": 6754,
    "\u2581choose": 6755,
    "\u2581\r": 6756,
    "\u2581systems": 6757,
    "loss": 6758,
    "iente": 6759,
    "\u2581Cre": 6760,
    "\u2581contra": 6761,
    "ums": 6762,
    "\u2581beginning": 6763,
    "emy": 6764,
    "istics": 6765,
    "\u2581served": 6766,
    "Down": 6767,
    "options": 6768,
    "\u2581Govern": 6769,
    "\u2581BY": 6770,
    "\u2581jest": 6771,
    "t\u00e9": 6772,
    "\u2581continue": 6773,
    "pers": 6774,
    "\u2581easier": 6775,
    "\u2581cos": 6776,
    "esso": 6777,
    ">>": 6778,
    "Net": 6779,
    "\u2581Bor": 6780,
    "\u2581Cr": 6781,
    "\u2581transfer": 6782,
    "\u2581CSS": 6783,
    "\u2581finns": 6784,
    "\u2581\u0445\u043e": 6785,
    "username": 6786,
    "\u2581constru": 6787,
    "\u2581pain": 6788,
    "\u2581Tem": 6789,
    "\u2581specified": 6790,
    "\u2581brit": 6791,
    "\u0441\u043a\u0438\u0435": 6792,
    "irk": 6793,
    "rapper": 6794,
    "\u2581counter": 6795,
    "\u2581[\"": 6796,
    "oded": 6797,
    "\u0434\u0430\u043d": 6798,
    "property": 6799,
    "hard": 6800,
    "istrict": 6801,
    ")/": 6802,
    "\u2581Pour": 6803,
    "\u2581Where": 6804,
    "\u2581===": 6805,
    "\u2581sowie": 6806,
    "\u2581\u041f\u0440\u043e": 6807,
    "\u2581dess": 6808,
    "\u2581tras": 6809,
    "\u2581\u0443\u0447\u0430": 6810,
    "\u2581Over": 6811,
    "note": 6812,
    "\u2581America": 6813,
    "cp": 6814,
    "\u2581grande": 6815,
    "Me": 6816,
    ")-": 6817,
    "Mode": 6818,
    "\u2581passing": 6819,
    "\u2581giving": 6820,
    "Cl": 6821,
    "}/": 6822,
    "Menu": 6823,
    "!!": 6824,
    "angular": 6825,
    "\u2581launch": 6826,
    "varphi": 6827,
    "\u2581Johann": 6828,
    "\u2581foreach": 6829,
    "r\u00f3": 6830,
    "sequ": 6831,
    "ifi": 6832,
    "Am": 6833,
    "arp": 6834,
    "\u2581buffer": 6835,
    "\u2581ni": 6836,
    "\u2581mix": 6837,
    "\u2581Museum": 6838,
    "\u2581meant": 6839,
    "asi": 6840,
    "\u2581kan": 6841,
    "\u043f\u0440\u0430\u0432": 6842,
    "Comp": 6843,
    "istoire": 6844,
    "iful": 6845,
    "jer": 6846,
    "issions": 6847,
    "Resource": 6848,
    "\u2581\u0432\u043e\u0437": 6849,
    "\u2581ST": 6850,
    "\u2581solutions": 6851,
    "\u2581belong": 6852,
    "\u2581Associ": 6853,
    "cf": 6854,
    "\u2581M\u00e4r": 6855,
    "\u2581grid": 6856,
    "Mult": 6857,
    "\u2581requires": 6858,
    "kk": 6859,
    "\u2581teach": 6860,
    "emeinde": 6861,
    "\u2581square": 6862,
    "\u2581\u043a\u043e\u043c\u0430\u043d": 6863,
    "\u2581Event": 6864,
    "\u2581rules": 6865,
    "\u2581bur": 6866,
    "\u2581eing": 6867,
    "\u2581Mai": 6868,
    "\u2581nam": 6869,
    "\u2581sl\u00e4": 6870,
    "h\u00f6r": 6871,
    "\u2581tip": 6872,
    "\u2581Literatur": 6873,
    "\u2581scope": 6874,
    "overline": 6875,
    "\u2581exit": 6876,
    ")?": 6877,
    "bet": 6878,
    "\u2581vict": 6879,
    "Off": 6880,
    "\u2581approxim": 6881,
    "\u2581Geb": 6882,
    "ktop": 6883,
    "heit": 6884,
    "\u2581\u042e": 6885,
    "template": 6886,
    "\u0440\u043e\u043d": 6887,
    "\u2581uno": 6888,
    "Serv": 6889,
    "\u2581framework": 6890,
    "operator": 6891,
    "\u2581generally": 6892,
    "\u2581hundred": 6893,
    "\u2581divers": 6894,
    "ovi": 6895,
    "\u2581r\u00e9s": 6896,
    "abs": 6897,
    "\u2581gal": 6898,
    "\u00e7ais": 6899,
    "\u2581feet": 6900,
    "\u2581virtual": 6901,
    "czy": 6902,
    "\u0441\u043a\u0443": 6903,
    "./": 6904,
    "hu": 6905,
    "ancy": 6906,
    "\u2581recommend": 6907,
    "\u2581\u043f\u0456\u0434": 6908,
    "\u2581money": 6909,
    "\u2581versions": 6910,
    "\u2581helps": 6911,
    "\u2581Hor": 6912,
    "Items": 6913,
    "look": 6914,
    "connect": 6915,
    "anges": 6916,
    "ViewController": 6917,
    "elijk": 6918,
    "\u2581occup": 6919,
    "\u2581editor": 6920,
    "auto": 6921,
    "\u00f6g": 6922,
    "\u2581seconds": 6923,
    "\u2581obvious": 6924,
    "vm": 6925,
    "akes": 6926,
    "\u2581gegen": 6927,
    "\u2581til": 6928,
    "jection": 6929,
    "\u043b\u0435\u043d\u043d\u044f": 6930,
    "\u2581operations": 6931,
    "\u2581East": 6932,
    "ogy": 6933,
    "\u2581Polit": 6934,
    "uten": 6935,
    "\u2581Joseph": 6936,
    "\"`": 6937,
    "\u2581Company": 6938,
    "\u2581callback": 6939,
    "\u2581sen": 6940,
    "cci\u00f3n": 6941,
    "\u2581associated": 6942,
    "\u2581containing": 6943,
    "\u2581practice": 6944,
    "elijke": 6945,
    "oke": 6946,
    "\u00e9ra": 6947,
    "uns": 6948,
    "anta": 6949,
    "vey": 6950,
    "zu": 6951,
    "\u2581Bes": 6952,
    "\u2581Flor": 6953,
    "mem": 6954,
    "ycz": 6955,
    "\u2581architect": 6956,
    "\u2581anni": 6957,
    "\u2581contact": 6958,
    "YPE": 6959,
    "\u2581Cas": 6960,
    "\u2581\u043f\u043e\u043b\u0443": 6961,
    "ovo": 6962,
    "\u2581bring": 6963,
    "\u2581concept": 6964,
    "\u2581js": 6965,
    "\u2581Referencias": 6966,
    "emble": 6967,
    "\u2581\u043d": 6968,
    "\u2581supported": 6969,
    "Big": 6970,
    "\u2581Hans": 6971,
    "erv": 6972,
    "\u2581Maj": 6973,
    "\u2581arriv": 6974,
    "\u2581Have": 6975,
    "\u2581probability": 6976,
    "\u2581Pop": 6977,
    "\u2581Pass": 6978,
    "token": 6979,
    "Provider": 6980,
    "\u2581Ra": 6981,
    "Reader": 6982,
    "ooth": 6983,
    "lap": 6984,
    "\u2581assist": 6985,
    "adow": 6986,
    "\u2581tests": 6987,
    "\u0441\u0441\u0438": 6988,
    "\u2581king": 6989,
    "langle": 6990,
    "\u2581Sum": 6991,
    "OIN": 6992,
    "\u2581security": 6993,
    "nis": 6994,
    "../": 6995,
    "\u2581basic": 6996,
    "unity": 6997,
    "`:": 6998,
    "\u2581\u043a\u043e\u0442\u043e": 6999,
    "kow": 7000,
    "\u2581Biblioth\u00e8que": 7001,
    "asion": 7002,
    "alo": 7003,
    "ifest": 7004,
    "\u2581novembre": 7005,
    "\u2581peu": 7006,
    "\u2581\u0416": 7007,
    "enschaft": 7008,
    "clus": 7009,
    "\u0458\u0443": 7010,
    "Height": 7011,
    "\u00fan": 7012,
    "\u2581tur": 7013,
    "\u2581ideas": 7014,
    "\u2581ces": 7015,
    "frak": 7016,
    "\u2581premier": 7017,
    "itation": 7018,
    "\u2581s\u00e9": 7019,
    "HTML": 7020,
    "\u2581Royal": 7021,
    "\u0441\u044c\u043a\u043e\u0457": 7022,
    "\u2581byte": 7023,
    "PS": 7024,
    "\u2581segu": 7025,
    "inen": 7026,
    "\u2581Great": 7027,
    "\u2581\u041a\u0443": 7028,
    "\u2581external": 7029,
    "Title": 7030,
    "Top": 7031,
    "Process": 7032,
    "it\u00e4t": 7033,
    "\u2581`/": 7034,
    "\u2581secret": 7035,
    "pository": 7036,
    "\u2581potential": 7037,
    "\u2581Bud": 7038,
    "names": 7039,
    "asons": 7040,
    "stackexchange": 7041,
    "background": 7042,
    "\u043f\u0435\u0440": 7043,
    "\u0441\u043e\u0432": 7044,
    "after": 7045,
    "\u2581pero": 7046,
    "\u2581software": 7047,
    "\u2581sed": 7048,
    "\u2581arrays": 7049,
    "tmp": 7050,
    "\u2581asp": 7051,
    "scale": 7052,
    "\u2581Lat": 7053,
    "anal": 7054,
    "\u2581gem": 7055,
    "PU": 7056,
    "\u2581Altri": 7057,
    "That": 7058,
    "\u2581\u041d\u0438": 7059,
    "ifact": 7060,
    "Address": 7061,
    "\u2581south": 7062,
    "\u2581formula": 7063,
    "\u2581Colleg": 7064,
    "\u2581\u0456\u043d": 7065,
    "ktion": 7066,
    "\u2581sac": 7067,
    "SH": 7068,
    "ajo": 7069,
    "etc": 7070,
    "vc": 7071,
    "`](": 7072,
    "\u2581Dur": 7073,
    "\u2581\u041c\u0435": 7074,
    "\u2581Smith": 7075,
    "items": 7076,
    "CK": 7077,
    "elo": 7078,
    "\u2581plugin": 7079,
    "\u2581serie": 7080,
    "ienne": 7081,
    "\u2581\u0438\u043b\u0438": 7082,
    "Mar": 7083,
    "\u2581Image": 7084,
    "got": 7085,
    "andas": 7086,
    "\u2581matches": 7087,
    "\u2581worth": 7088,
    "\u2581Deb": 7089,
    "\u2581cache": 7090,
    "\u2581felt": 7091,
    "ersch": 7092,
    "izes": 7093,
    "Oper": 7094,
    "\u2581Jahre": 7095,
    "\u2581commune": 7096,
    "thread": 7097,
    "\u2581ny": 7098,
    "dec": 7099,
    "ouw": 7100,
    "\u2581surface": 7101,
    "\u2581Por": 7102,
    "\u2581Street": 7103,
    "\u043f\u0440\u0438": 7104,
    "\u2581candid": 7105,
    "\u2581Return": 7106,
    "\u2581Kom": 7107,
    "gru": 7108,
    "\u2581\u0442\u0438": 7109,
    "[\\": 7110,
    "\u2581depends": 7111,
    "\u2581influ": 7112,
    "\u2581towards": 7113,
    "ained": 7114,
    "\u2581rank": 7115,
    "\u2581Januar": 7116,
    "\u2581components": 7117,
    "gest": 7118,
    "getElementById": 7119,
    "\u2581checked": 7120,
    "airs": 7121,
    "join": 7122,
    "\u2581dead": 7123,
    "\u2581hit": 7124,
    "\u00e9ny": 7125,
    "\u2581equivalent": 7126,
    "\u2581\u041f\u0440\u0435": 7127,
    "\u2581appropri": 7128,
    "Pass": 7129,
    "\u2581primer": 7130,
    "englisch": 7131,
    "\u2581appar": 7132,
    "\u2581During": 7133,
    "\u2581knowledge": 7134,
    "\u2581trigger": 7135,
    "\u2581core": 7136,
    "\u2581Ol": 7137,
    "\u2581Produ": 7138,
    "\u2581Fern": 7139,
    "\u2581\u043d\u0430\u0447\u0430": 7140,
    "Te": 7141,
    "\u2581Mot": 7142,
    "erve": 7143,
    "\u0442\u0432\u043e": 7144,
    "\u2581mid": 7145,
    "\u2581finally": 7146,
    "aires": 7147,
    "\u2581especially": 7148,
    "\u2581tut": 7149,
    "\u2581receive": 7150,
    "adre": 7151,
    "\u2581neigh": 7152,
    "ktet": 7153,
    "ilde": 7154,
    "\u2581radio": 7155,
    "\u2581driver": 7156,
    "\u043b\u0438\u0441\u044c": 7157,
    "endencies": 7158,
    "\u2581IE": 7159,
    "\u2581saved": 7160,
    "ffect": 7161,
    "\u2581Wayback": 7162,
    "iat": 7163,
    "\u2581padding": 7164,
    "window": 7165,
    "\u0442\u0438\u0447\u0435": 7166,
    "\u2581mur": 7167,
    "actor": 7168,
    "\u2581Han": 7169,
    "\u043e\u043d\u0430\u043b\u044c": 7170,
    "\u2581gar": 7171,
    "\u2581familjen": 7172,
    "\u00f3s": 7173,
    "\u2581nationale": 7174,
    "\u2581pr\u00e9": 7175,
    "ded": 7176,
    "onal": 7177,
    "\u2581President": 7178,
    "\u2581\\,": 7179,
    "\u2581placed": 7180,
    "erni": 7181,
    "\u2581signal": 7182,
    "nab": 7183,
    "hm": 7184,
    "Mon": 7185,
    "\u2581vs": 7186,
    "SC": 7187,
    "\u2581progetti": 7188,
    "\u2581\u00dc": 7189,
    "\u2581forms": 7190,
    "\u2581messages": 7191,
    "inf": 7192,
    "users": 7193,
    "GET": 7194,
    "\u2581dels": 7195,
    "Collection": 7196,
    "\u2581Good": 7197,
    "\u2581Maybe": 7198,
    "\u2581compr": 7199,
    "\u2581larger": 7200,
    "gres": 7201,
    "aper": 7202,
    "\u2581\u041f\u0440\u0438": 7203,
    "undes": 7204,
    "\u2581sea": 7205,
    "\u2581Spring": 7206,
    "ulo": 7207,
    "\u2581mechan": 7208,
    "\u2581sans": 7209,
    "GB": 7210,
    "Valid": 7211,
    "\u2581communic": 7212,
    "\u2581pra": 7213,
    "vier": 7214,
    "\u2581\u0421\u0435": 7215,
    "\u2581ain": 7216,
    "\u0442\u0443\u0440\u0430": 7217,
    "kom": 7218,
    "skiego": 7219,
    "\u043a\u043e\u0432\u043e": 7220,
    "adata": 7221,
    "\u2581\u0420\u0435": 7222,
    "\u2581boolean": 7223,
    "sets": 7224,
    "\u2581effort": 7225,
    ".[": 7226,
    "\u2581zosta\u0142": 7227,
    "PA": 7228,
    "\u2581Vict": 7229,
    "SD": 7230,
    "owa\u0142": 7231,
    "\u2581emb": 7232,
    "\u2581prima": 7233,
    "\u2581hour": 7234,
    "subsection": 7235,
    "\u2581Fort": 7236,
    "mathfrak": 7237,
    "igin": 7238,
    "GL": 7239,
    ")+": 7240,
    "fi": 7241,
    "\u2581anci": 7242,
    "\u2581pan": 7243,
    "\\)": 7244,
    "\u2581lug": 7245,
    "\u2581deploy": 7246,
    "domain": 7247,
    "\u2581slight": 7248,
    "JSON": 7249,
    "\u2581morning": 7250,
    "\u2581hi": 7251,
    "\u2581compare": 7252,
    "ije": 7253,
    "\u2581blue": 7254,
    "\u2581Ac": 7255,
    "\u2581middle": 7256,
    "anden": 7257,
    "\u2581shared": 7258,
    "\u2581Camp": 7259,
    "\u2581\u00c1": 7260,
    "ounded": 7261,
    "uw": 7262,
    "ierung": 7263,
    "Stack": 7264,
    "\u2581eines": 7265,
    "\u2581Da": 7266,
    "lij": 7267,
    "enti": 7268,
    "\u2581\u0439": 7269,
    "Util": 7270,
    "\u2581experience": 7271,
    "\u2581await": 7272,
    "uls": 7273,
    "\u2581requests": 7274,
    "\u2581impos": 7275,
    "\u2581constraint": 7276,
    "Change": 7277,
    "emph": 7278,
    "\u0431\u0435\u0440": 7279,
    "\u2581Another": 7280,
    "Custom": 7281,
    "\u2581significant": 7282,
    "cr": 7283,
    "\u2581million": 7284,
    "reek": 7285,
    "\u2581dalla": 7286,
    "\u2581Germ": 7287,
    "otal": 7288,
    "ateur": 7289,
    "btn": 7290,
    "\u2581thinking": 7291,
    "\u2581interval": 7292,
    "onne": 7293,
    "\u2581liv": 7294,
    "():": 7295,
    "\u2581\u0412\u0435": 7296,
    "oe": 7297,
    "\u2581Ev": 7298,
    "meta": 7299,
    "\u2581broad": 7300,
    "Rem": 7301,
    "apply": 7302,
    "\u2581couple": 7303,
    "\u2581techni": 7304,
    "idades": 7305,
    "\u2581goal": 7306,
    "\u2581CD": 7307,
    "hab": 7308,
    "\u2581explan": 7309,
    "anner": 7310,
    "\u2581Because": 7311,
    "blog": 7312,
    "includegraphics": 7313,
    "\u2581voice": 7314,
    "\u2581Map": 7315,
    "vention": 7316,
    "Session": 7317,
    "\u2581Liens": 7318,
    "\u2581sor": 7319,
    "category": 7320,
    "ashington": 7321,
    "\u2581M\u00e4rz": 7322,
    "pop": 7323,
    "illet": 7324,
    "\u2581zwei": 7325,
    "\u2581Lie": 7326,
    "Null": 7327,
    "address": 7328,
    "\u2581factor": 7329,
    "\u2581ligne": 7330,
    "\u2581HTTP": 7331,
    "\u2581suf": 7332,
    "\u2581personal": 7333,
    "cip": 7334,
    "\u2581Dar": 7335,
    "\u2581adm": 7336,
    "\u043a\u043e\u0439": 7337,
    "\u2581Ext": 7338,
    "\u2581god": 7339,
    "aa": 7340,
    "Right": 7341,
    "\u00e9t\u00e9": 7342,
    "\u2581dynamic": 7343,
    "\u2581maintain": 7344,
    "tor": 7345,
    "########": 7346,
    "\u2581Fra": 7347,
    "\u2581choice": 7348,
    "\u2581\u0441\u0442\u043e": 7349,
    "\u0421\u0420": 7350,
    "\u2581Feder": 7351,
    "ston": 7352,
    "\u2581flag": 7353,
    "kit": 7354,
    "Module": 7355,
    "\u2581\u0441\u043f\u043e": 7356,
    "\u2581Stra": 7357,
    "icks": 7358,
    "\u2581haven": 7359,
    "\u2581Mass": 7360,
    "\u2581Emp": 7361,
    "\u2581Pi": 7362,
    "\u2581Pen": 7363,
    "Rect": 7364,
    "\u2581Kr": 7365,
    "itat": 7366,
    "eler": 7367,
    "\u044f\u0431\u0440\u044f": 7368,
    "itet": 7369,
    "\u2581Start": 7370,
    "\u2581produced": 7371,
    "\u2581\u043f\u043e\u043b": 7372,
    "(_": 7373,
    "\u2581delet": 7374,
    "\u2581hot": 7375,
    "\u2581Geschichte": 7376,
    "~~": 7377,
    "\u2581months": 7378,
    "\u2581tod": 7379,
    "\u2581\u043d\u0438": 7380,
    "\u00fas": 7381,
    "temp": 7382,
    "\u2581Dez": 7383,
    "ypes": 7384,
    "\u2581cui": 7385,
    "ommun": 7386,
    "actions": 7387,
    "\u2581eigen": 7388,
    "\u2581immediately": 7389,
    "PL": 7390,
    "\u2581\u0413\u043e": 7391,
    "\u2581Bal": 7392,
    "\u0459\u0435": 7393,
    "ului": 7394,
    "\u2581online": 7395,
    "\u2581a\u00f1os": 7396,
    "\u2581namespace": 7397,
    "\u2581mond": 7398,
    "\u2581Base": 7399,
    "\u2581Canada": 7400,
    "etzt": 7401,
    "}-": 7402,
    "\u2581defin": 7403,
    "\u2581doubt": 7404,
    "\u2581investig": 7405,
    "views": 7406,
    "\u2581Line": 7407,
    "\u2581stage": 7408,
    "ettings": 7409,
    "ubre": 7410,
    "float": 7411,
    "\u2581Play": 7412,
    "\u2581Las": 7413,
    "ptr": 7414,
    "\u2581becomes": 7415,
    "estamp": 7416,
    "\u2581independent": 7417,
    "\u2581analysis": 7418,
    "\u2581Look": 7419,
    "lain": 7420,
    "\u2581\u0440\u0430\u0441": 7421,
    "Reference": 7422,
    "\u2581sorry": 7423,
    "\u2581supposed": 7424,
    "\u00fbt": 7425,
    "\u2581degree": 7426,
    "utz": 7427,
    "MM": 7428,
    "\u2581desired": 7429,
    "\u0142y": 7430,
    "\u2581len": 7431,
    "\u2581alone": 7432,
    "signed": 7433,
    "\u2581Sta": 7434,
    "Person": 7435,
    "\u2581applied": 7436,
    "\u2581Back": 7437,
    "\u2581mars": 7438,
    "Part": 7439,
    "\u2581Did": 7440,
    "\u2581externes": 7441,
    "\u2581np": 7442,
    "ongo": 7443,
    "\u2581esta": 7444,
    "Block": 7445,
    "\u2581pou": 7446,
    "adores": 7447,
    "\u2581Studio": 7448,
    ".$": 7449,
    "\u2581reached": 7450,
    "bot": 7451,
    "\u2581Juni": 7452,
    "tons": 7453,
    "itel": 7454,
    "\u2581Gar": 7455,
    "\u2581articles": 7456,
    "\u2581District": 7457,
    "\u2581trouble": 7458,
    "lide": 7459,
    "\u2581Found": 7460,
    "\u00e1d": 7461,
    "\u2581equip": 7462,
    "\u2581internal": 7463,
    "'],": 7464,
    "\u2581async": 7465,
    "UB": 7466,
    "gel": 7467,
    "\u2581ai": 7468,
    "ensure": 7469,
    "\u2581appeared": 7470,
    "\u2581$_": 7471,
    "\u2581maximum": 7472,
    "\u2581\u0421\u0438": 7473,
    "\u0440\u044c": 7474,
    "\u2581announ": 7475,
    "\u043b\u0430\u0441\u044c": 7476,
    "\u2581cm": 7477,
    "\u0433\u0430\u043d": 7478,
    "aupt": 7479,
    "\u2581latter": 7480,
    "\u2581platform": 7481,
    "\u2581dra": 7482,
    "\u2581capital": 7483,
    "\u2581solved": 7484,
    "riz": 7485,
    "edic": 7486,
    "\u2581Mur": 7487,
    "\u2581Top": 7488,
    "\u0442\u0441\u044f": 7489,
    "Panel": 7490,
    "rule": 7491,
    "etic": 7492,
    "\u2581Ren": 7493,
    "\u2581Wikimedia": 7494,
    "\u2581TO": 7495,
    "second": 7496,
    "isl": 7497,
    "\u2581hy": 7498,
    "\u2581niet": 7499,
    "\u2581loaded": 7500,
    "dig": 7501,
    "\u2581mayo": 7502,
    "[:": 7503,
    "Acc": 7504,
    "\u2581bek": 7505,
    "\u043d\u0438\u044e": 7506,
    "login": 7507,
    "tx": 7508,
    "\u2581Fur": 7509,
    "\u2581Santa": 7510,
    "azz": 7511,
    "\u2581conduct": 7512,
    "\u2581India": 7513,
    "Order": 7514,
    "irth": 7515,
    "tw": 7516,
    "}+": 7517,
    "\u2581wieder": 7518,
    "\u2581Edu": 7519,
    "AV": 7520,
    "\u2581```": 7521,
    "\u2581manually": 7522,
    "\u2581Read": 7523,
    "fortunately": 7524,
    "\u2581Run": 7525,
    "\u2581Award": 7526,
    "\u2581Foot": 7527,
    "*)": 7528,
    "params": 7529,
    "\u043f\u0456": 7530,
    "\u2581native": 7531,
    "rift": 7532,
    "\u2581\u00e4": 7533,
    "ATH": 7534,
    "\u2581yourself": 7535,
    "\u2581prior": 7536,
    "\u2581cit": 7537,
    "\u00e4h": 7538,
    "\u2581treat": 7539,
    "\u2581meas": 7540,
    "ributed": 7541,
    "\u2581clar": 7542,
    "card": 7543,
    "ROR": 7544,
    "illes": 7545,
    "\u2581layer": 7546,
    "auer": 7547,
    "\u2581rat": 7548,
    "bernate": 7549,
    "\u2581stato": 7550,
    "\u2581China": 7551,
    "\u2581$('#": 7552,
    "\u2581naar": 7553,
    "zip": 7554,
    "\u2581${\\": 7555,
    "\u2581appreciated": 7556,
    "\u2581\u0438\u043c\u0435": 7557,
    "\u017cy": 7558,
    "\u2581przez": 7559,
    "\u2581Indian": 7560,
    "\u2581Tod": 7561,
    "\u2581Source": 7562,
    "\u2581\u0434\u0440\u0443\u0433\u0438": 7563,
    "internal": 7564,
    "ionale": 7565,
    "Product": 7566,
    "\u2581Men": 7567,
    "\u2581upper": 7568,
    "\u2581Every": 7569,
    "},\\": 7570,
    "\u2581printf": 7571,
    "\u2581continued": 7572,
    "\u2581nodes": 7573,
    "\u043b\u043a\u0438": 7574,
    "\u2581nice": 7575,
    "modules": 7576,
    "eign": 7577,
    "\u2581Mex": 7578,
    "\u2581According": 7579,
    "\u2581undefined": 7580,
    "\u2581binary": 7581,
    "cut": 7582,
    "Current": 7583,
    "edy": 7584,
    "}}{": 7585,
    "bles": 7586,
    "\u2581\u0432\u043e\u0439": 7587,
    "scri": 7588,
    "eqn": 7589,
    "Changed": 7590,
    "\u2581k\u00f6z": 7591,
    "\u2581remote": 7592,
    "\u0432\u043b\u044f": 7593,
    "\u2581quel": 7594,
    "\u2581align": 7595,
    "\u2581\u043f\u0430\u0440": 7596,
    "SV": 7597,
    "yer": 7598,
    "\u2581Californ": 7599,
    "\u2581places": 7600,
    "\u2581primary": 7601,
    "\u2581conv": 7602,
    "\u2581Juli": 7603,
    "\u2581visual": 7604,
    "\u2581Select": 7605,
    "atory": 7606,
    "=(": 7607,
    "iser": 7608,
    "\u2581intent": 7609,
    "sur": 7610,
    "container": 7611,
    "iced": 7612,
    "\u2581board": 7613,
    "astr": 7614,
    "omial": 7615,
    "\u0432\u0435\u0442": 7616,
    "\u0437\u0432\u0430": 7617,
    "\u2581cru": 7618,
    "\u2581Oktober": 7619,
    "save": 7620,
    "\u2581greater": 7621,
    "\u2581inn": 7622,
    "\u2581picture": 7623,
    "\u2581\u0422\u043e": 7624,
    "\u2581obtained": 7625,
    "Wikimedia": 7626,
    "\u00fablic": 7627,
    "\u2581lors": 7628,
    "\u2581mont": 7629,
    "obre": 7630,
    "\u2581civil": 7631,
    "\u2581construction": 7632,
    "\u2581Welt": 7633,
    "\u2581Under": 7634,
    "undert": 7635,
    "\u2581edge": 7636,
    "\u2581Liste": 7637,
    "csv": 7638,
    "\u2581experiment": 7639,
    "localhost": 7640,
    "\u2581Edit": 7641,
    "greg": 7642,
    "ov\u00e1": 7643,
    "\u0459\u0430": 7644,
    "msg": 7645,
    "\u2581Green": 7646,
    "Dialog": 7647,
    "Ident": 7648,
    "\u2581JS": 7649,
    "^{(": 7650,
    "\u2581sl\u00e4ktet": 7651,
    "____": 7652,
    "Project": 7653,
    "\u2581beskre": 7654,
    "\u2581ber": 7655,
    "\u2581wouldn": 7656,
    "\u2581react": 7657,
    "Hel": 7658,
    "zw": 7659,
    "\u2581Washington": 7660,
    "orie": 7661,
    "task": 7662,
    "\u2581category": 7663,
    "\u2581artist": 7664,
    "anno": 7665,
    "\u2581ook": 7666,
    "ammen": 7667,
    "\u2581Minister": 7668,
    "\u2581declar": 7669,
    "\u2581Key": 7670,
    ",.": 7671,
    "\u2581mach": 7672,
    "\u2581ww": 7673,
    "isen": 7674,
    "Fran": 7675,
    "\u2581\u0420\u043e\u0441\u0441\u0438": 7676,
    "\u0431\u043e\u0440": 7677,
    "\u0442\u0440\u0438": 7678,
    "\u2581rock": 7679,
    "quis": 7680,
    "mos": 7681,
    "\u043f\u0435\u0440\u0430": 7682,
    "\u2581esterni": 7683,
    "\u2581gold": 7684,
    "Windows": 7685,
    "%%": 7686,
    "\u2581partial": 7687,
    "\u2581weight": 7688,
    "\u2581spr": 7689,
    "}).": 7690,
    "\u2581fran\u00e7ais": 7691,
    "fun": 7692,
    "\u2581thous": 7693,
    "holder": 7694,
    "\u2581gone": 7695,
    "\u2581\u010c": 7696,
    "\u2581rend": 7697,
    "DA": 7698,
    "\u2581answered": 7699,
    "\u2581False": 7700,
    "Buffer": 7701,
    "\u2581daugh": 7702,
    ".--": 7703,
    "\u2581Show": 7704,
    "\u2581rect": 7705,
    "\u2581Kre": 7706,
    "dr": 7707,
    "osoph": 7708,
    "\u2581yield": 7709,
    "urity": 7710,
    "toString": 7711,
    "aval": 7712,
    "Pol": 7713,
    "\u2581lock": 7714,
    "imation": 7715,
    "antic": 7716,
    "Local": 7717,
    "\u2581beskrevs": 7718,
    "it\u00e9s": 7719,
    "grid": 7720,
    "\u0443\u0442": 7721,
    "\u2581_{": 7722,
    "\u0441\u0456": 7723,
    "FILE": 7724,
    "\u2581\u043a\u043c": 7725,
    "\u2581speak": 7726,
    "summary": 7727,
    "prop": 7728,
    "javascript": 7729,
    "zk": 7730,
    "izontal": 7731,
    "\u2581trois": 7732,
    "\u2581Rod": 7733,
    "prise": 7734,
    "\u0440\u043e\u0432\u043e": 7735,
    "\u2581odd": 7736,
    "\u2581gest": 7737,
    "\u2581produce": 7738,
    "\u2581waar": 7739,
    "\u2581Av": 7740,
    "ribu": 7741,
    "\u0432\u0430\u043d\u043d\u044f": 7742,
    "\u2581finished": 7743,
    "\u2581adapt": 7744,
    "\u2581Sar": 7745,
    "textit": 7746,
    "\u2581Ce": 7747,
    "\u2581Fa": 7748,
    "osen": 7749,
    "\u2581deriv": 7750,
    "\u2581ship": 7751,
    "\u2581opin": 7752,
    "\u2581Even": 7753,
    "gesch": 7754,
    "\u2581suppose": 7755,
    "\u2581Fer": 7756,
    "\u0441\u043a\u043e\u0435": 7757,
    "\u2581worden": 7758,
    "sey": 7759,
    "hline": 7760,
    "\u2581Union": 7761,
    "\u2581/**": 7762,
    "\u2581vez": 7763,
    "\u2581Collegamenti": 7764,
    "\u2581Society": 7765,
    "\u2581econom": 7766,
    "\u0161\u00ed": 7767,
    "oi": 7768,
    "\u2581orient": 7769,
    "\u2581Teil": 7770,
    "rent": 7771,
    "\u043b\u0435\u043a\u0441": 7772,
    "\u2581solid": 7773,
    "\u2581cart": 7774,
    "****************": 7775,
    "\u2581cab": 7776,
    "\u2581Message": 7777,
    "dots": 7778,
    "\u2581\u00e9g": 7779,
    "\u2581twe": 7780,
    "aga": 7781,
    "\u2581naz": 7782,
    "\u2581Microsoft": 7783,
    "\u2581underarter": 7784,
    "ppen": 7785,
    "\u2581recent": 7786,
    "\u2581net": 7787,
    "\u2581resources": 7788,
    "Ste": 7789,
    ".\\": 7790,
    "\u2581SO": 7791,
    "\u043b\u043e\u043c": 7792,
    "\u2581cele": 7793,
    "\u2581lic": 7794,
    "\u2581benef": 7795,
    "ldots": 7796,
    "\u2581serial": 7797,
    "Integer": 7798,
    "cles": 7799,
    "\u2581miles": 7800,
    "\u2581Ale": 7801,
    "\u2581entered": 7802,
    "\u2581Two": 7803,
    "wie": 7804,
    "\u2581includes": 7805,
    "\u2581Each": 7806,
    "elling": 7807,
    "quer": 7808,
    "\u2581Dom": 7809,
    "pf": 7810,
    "WS": 7811,
    "\u2581straight": 7812,
    "\u2581Stan": 7813,
    "\u2581nos": 7814,
    "\u00edcul": 7815,
    "atro": 7816,
    "\u2581Center": 7817,
    "FT": 7818,
    "\u2581Inga": 7819,
    "ilo": 7820,
    "\u2581www": 7821,
    "jsfiddle": 7822,
    "nic": 7823,
    "\u2581European": 7824,
    "\u2581commer": 7825,
    "\u2581girl": 7826,
    "total": 7827,
    "\u2581Star": 7828,
    "\u2581suggested": 7829,
    "pal": 7830,
    "\u2581zwischen": 7831,
    "\u043f\u0438\u0441\u0430": 7832,
    "IM": 7833,
    "\u2581handler": 7834,
    "\u2581Program": 7835,
    "xsl": 7836,
    "\u00e1ly": 7837,
    "BU": 7838,
    ",--": 7839,
    "\u2581vid": 7840,
    "\u2581established": 7841,
    "\u2581Spiel": 7842,
    "ometry": 7843,
    "unes": 7844,
    "\u2581sit": 7845,
    "\u2581inher": 7846,
    "\u2581puis": 7847,
    "\u2581\u00eatre": 7848,
    "\u2581Most": 7849,
    "Header": 7850,
    "insert": 7851,
    "\u2581sist": 7852,
    "\u2581favor": 7853,
    "dest": 7854,
    "\u2581entity": 7855,
    "Cal": 7856,
    "\u2581Therefore": 7857,
    "DD": 7858,
    ";;": 7859,
    "\u2581Dezember": 7860,
    "\u2581Rh": 7861,
    "iments": 7862,
    "\u2581returning": 7863,
    "sto": 7864,
    "\u2581Value": 7865,
    "\u2581liber": 7866,
    "\u2581Result": 7867,
    "\u2581bind": 7868,
    "voir": 7869,
    "\u2581Tim": 7870,
    "\u2581Movie": 7871,
    "weg": 7872,
    "ket": 7873,
    "\u2581\u0438\u0441\u0442\u043e": 7874,
    "\u2581friends": 7875,
    "\u2581fn": 7876,
    "\u2581\u00e9l": 7877,
    "\u2581&=": 7878,
    "arden": 7879,
    "fficial": 7880,
    "\u2581community": 7881,
    "\u2581api": 7882,
    "Args": 7883,
    "ieren": 7884,
    "\u2581dann": 7885,
    "omorph": 7886,
    "adr": 7887,
    "loop": 7888,
    "uman": 7889,
    "\u2581vous": 7890,
    "bst": 7891,
    "submit": 7892,
    "\\|": 7893,
    "\u0442\u0438\u043d": 7894,
    "Container": 7895,
    "asket": 7896,
    "?)": 7897,
    "Sec": 7898,
    "\u2581drive": 7899,
    "Ass": 7900,
    "\u2581swe": 7901,
    "\u2581amer": 7902,
    "\u2581mine": 7903,
    "\u2581Ham": 7904,
    "\u2581avait": 7905,
    "\u2581Hon": 7906,
    "\u2581apr\u00e8s": 7907,
    "\u2581Mann": 7908,
    "\u0441\u044c\u043a\u0430": 7909,
    "\u2581increase": 7910,
    "\u2581ty": 7911,
    "sky": 7912,
    "\u2581accur": 7913,
    "article": 7914,
    "weight": 7915,
    "\u2581sex": 7916,
    "\u2581listade": 7917,
    "/**": 7918,
    "\u2581est\u00e1": 7919,
    "}}$": 7920,
    "argo": 7921,
    "define": 7922,
    "\u2581\u0441\u043e\u0441\u0442\u0430\u0432": 7923,
    "session": 7924,
    "ads": 7925,
    "\u0441\u0442\u0432\u0438": 7926,
    "\u2581Law": 7927,
    "\u2581dialog": 7928,
    "\u2581duplicate": 7929,
    "\u2581\u00e9p": 7930,
    "\u2581voc": 7931,
    "fri": 7932,
    "\u2581green": 7933,
    "\u2581hidden": 7934,
    "\u2581Island": 7935,
    "\u2581diag": 7936,
    "owej": 7937,
    "mysql": 7938,
    "teil": 7939,
    "r\u00e4": 7940,
    "ikan": 7941,
    "\u2581Jos\u00e9": 7942,
    "aled": 7943,
    "Runtime": 7944,
    "\u2581train": 7945,
    "\u2581Division": 7946,
    "\u043d\u0438\u0446": 7947,
    "\u2581Span": 7948,
    "\u043d\u0438\u043c\u0430": 7949,
    ")=\\": 7950,
    "\u0442\u0430\u043d": 7951,
    "\u2581stay": 7952,
    "\u2581foo": 7953,
    "\u2581accom": 7954,
    "\u2581hers": 7955,
    "\u2581\u043d\u0430\u0443": 7956,
    "\u2581M\u00fcn": 7957,
    "ideos": 7958,
    "static": 7959,
    "\u2581ready": 7960,
    "]`": 7961,
    "\u2581visible": 7962,
    "\u2581Hope": 7963,
    "ulated": 7964,
    "\u2581Cult": 7965,
    "\u0441\u0442\u0440\u043e": 7966,
    "Co": 7967,
    "\u2581smaller": 7968,
    "atura": 7969,
    "\u2581perfectly": 7970,
    "req": 7971,
    "\u2581proposed": 7972,
    "\u2581degli": 7973,
    "Search": 7974,
    "\u2581ich": 7975,
    "Max": 7976,
    "\u2581volume": 7977,
    "execute": 7978,
    "gre": 7979,
    "\u2581sport": 7980,
    "udad": 7981,
    "PT": 7982,
    "\u2581Records": 7983,
    "\u2581cook": 7984,
    "\u2581expand": 7985,
    "\u0431\u0456": 7986,
    "\u2581altri": 7987,
    "ppet": 7988,
    "arse": 7989,
    "\u2581wet": 7990,
    "\u2581Bob": 7991,
    "\u2581FC": 7992,
    "\u2581Association": 7993,
    "uje": 7994,
    "\u2581fel": 7995,
    "\u2581\u0441\u043b\u0443": 7996,
    "\u2581Big": 7997,
    "/\\": 7998,
    "Ge": 7999,
    "while": 8000,
    "{(": 8001,
    "\u2581sufficient": 8002,
    "Position": 8003,
    "\u2581understanding": 8004,
    "\u2581nue": 8005,
    "\u2581raz": 8006,
    "\u2581ye": 8007,
    "hem": 8008,
    "Num": 8009,
    "\u2581Project": 8010,
    "\u2581Its": 8011,
    "\u2581hasta": 8012,
    "enso": 8013,
    "\u2581wire": 8014,
    "Ret": 8015,
    "uj": 8016,
    "proof": 8017,
    "\u2581relevant": 8018,
    "\u2581partir": 8019,
    "\u2581ago": 8020,
    "ificate": 8021,
    "\u2581domin": 8022,
    "\u2581boy": 8023,
    "\u2581plant": 8024,
    "\u2581encoding": 8025,
    "\u2581throws": 8026,
    "\u2581Rock": 8027,
    "zone": 8028,
    "gang": 8029,
    "widget": 8030,
    "\u2581interesting": 8031,
    "DER": 8032,
    "\u2581demon": 8033,
    "\u2581office": 8034,
    "amt": 8035,
    "\u00e4ter": 8036,
    "\u2581White": 8037,
    "\u2581versch": 8038,
    "\u2581dieser": 8039,
    "\u2581Mount": 8040,
    "\u2581students": 8041,
    "\u2581Pub": 8042,
    "\u2581\u0414\u0435": 8043,
    "ija": 8044,
    "\u2581Cy": 8045,
    "\u2581California": 8046,
    "\u2581abril": 8047,
    "\u00e4ll": 8048,
    "\u2581\u0447\u0435\u043c": 8049,
    "TV": 8050,
    "\u2581m\u00e9s": 8051,
    "\u2581declared": 8052,
    "\u2581\u044e": 8053,
    "\u0151l": 8054,
    "appa": 8055,
    "\u2581\u0411\u0435": 8056,
    "echo": 8057,
    "numer": 8058,
    "\u2581posted": 8059,
    "\u2581\u0432\u0435\u0440": 8060,
    "\u2581\u0433\u043e\u0434\u0438\u043d\u0435": 8061,
    "\u2581weak": 8062,
    "\u2581Republic": 8063,
    "\u2581champion": 8064,
    "ensuremath": 8065,
    "your": 8066,
    "\u2581Ober": 8067,
    "\u2581Central": 8068,
    "isa": 8069,
    "\u0430\u043d\u0434": 8070,
    "yy": 8071,
    "\u2581fully": 8072,
    "\u2581SD": 8073,
    "\u2581Linux": 8074,
    "\u2581Scott": 8075,
    "partment": 8076,
    "kon": 8077,
    "\u2581contract": 8078,
    "\u2581OF": 8079,
    "\u2581ale": 8080,
    "\u2581Ann": 8081,
    "\u2581\u043d\u0430\u0434": 8082,
    "lah": 8083,
    "\u2581Next": 8084,
    "oren": 8085,
    "\u2581disk": 8086,
    "\u2581eg": 8087,
    "atu": 8088,
    "\u043b\u043e\u0433\u0438": 8089,
    "\u2581games": 8090,
    "Left": 8091,
    "\u2581lu": 8092,
    "\u2581finite": 8093,
    "\u2581\u043a\u0438": 8094,
    "\u2581crash": 8095,
    "pher": 8096,
    "exe": 8097,
    "ATION": 8098,
    "\u2581brother": 8099,
    "Eng": 8100,
    "tat": 8101,
    "\u2581Integer": 8102,
    "\u043d\u043e\u043c\u0443": 8103,
    "\u2581colon": 8104,
    "iqu": 8105,
    ")).": 8106,
    "ivi": 8107,
    "\u2581Method": 8108,
    "arten": 8109,
    "Uni": 8110,
    "vector": 8111,
    "\u2581wood": 8112,
    "\u0440\u0442": 8113,
    "\u2581\u041b\u0435": 8114,
    "\u2581si\u00e8cle": 8115,
    "\u2581gent": 8116,
    "}\r": 8117,
    "\u2581contents": 8118,
    "\u2581compan": 8119,
    "Go": 8120,
    "\u2581jou": 8121,
    "uent": 8122,
    "Async": 8123,
    "printf": 8124,
    "\u2581Model": 8125,
    "\u2581kept": 8126,
    "ASE": 8127,
    "\u2581provides": 8128,
    "\u2581Abgerufen": 8129,
    "\u2581Gall": 8130,
    "\u2581Alf": 8131,
    "SA": 8132,
    "\u2581Mem": 8133,
    "\u2581kter": 8134,
    "\u2581Bru": 8135,
    "Android": 8136,
    "(:": 8137,
    "\u2581\u0423\u043a\u0440\u0430\u0457": 8138,
    "Ne": 8139,
    "Min": 8140,
    "atr": 8141,
    "\u2581Hal": 8142,
    "delete": 8143,
    "odo": 8144,
    "\u2581n\u00e3o": 8145,
    "\u00e8ne": 8146,
    "\u2581calculate": 8147,
    "Json": 8148,
    "keys": 8149,
    "\u043d\u0435\u0439": 8150,
    "\u2581hence": 8151,
    "\u2581ow": 8152,
    "\u2581Lib": 8153,
    "eno": 8154,
    "\u2581Love": 8155,
    "osi": 8156,
    "wide": 8157,
    "\u2581score": 8158,
    "full": 8159,
    "\u0432\u043e\u0434": 8160,
    "\u2581determine": 8161,
    "\u2581spaces": 8162,
    "\u043b\u043e\u0432\u0430": 8163,
    "\u2581peut": 8164,
    "\u00e9ral": 8165,
    "\u00f3\u0142": 8166,
    "\u2581appoint": 8167,
    "\u2581Tw": 8168,
    "<?": 8169,
    "\u2581Order": 8170,
    "\u2581hop": 8171,
    "random": 8172,
    "cache": 8173,
    "\u2581destroy": 8174,
    "\u2581race": 8175,
    "Tag": 8176,
    "\u2581rid": 8177,
    "\u2581negative": 8178,
    "Car": 8179,
    "ensional": 8180,
    "dk": 8181,
    "\u2581cro": 8182,
    "\u2581THEN": 8183,
    "\u2581$.": 8184,
    "ensk": 8185,
    "NE": 8186,
    "HO": 8187,
    "\u2581kle": 8188,
    "ospital": 8189,
    "kte": 8190,
    "f\u00e9rences": 8191,
    "udes": 8192,
    "IR": 8193,
    "otion": 8194,
    "\u2581Real": 8195,
    "\u2581Februar": 8196,
    "\u0438\u043d": 8197,
    "\u2581Old": 8198,
    "\u043a\u043e\u0433\u043e": 8199,
    "leich": 8200,
    "\u2581\u0440": 8201,
    "\u00edan": 8202,
    "\u2581\u0433\u0430": 8203,
    "cide": 8204,
    "lab": 8205,
    "\u2581pull": 8206,
    "\u2581'/": 8207,
    "Long": 8208,
    ",$": 8209,
    "\u2581appropriate": 8210,
    "\u2581\u0431\u044b\u043b\u0430": 8211,
    "f\u00fchr": 8212,
    "\u2581Media": 8213,
    "\u2581manner": 8214,
    "\u2581\u0413\u0435": 8215,
    "description": 8216,
    "Bean": 8217,
    "\u2581Lar": 8218,
    "'];": 8219,
    "\u2581relation": 8220,
    "\u2581Sorry": 8221,
    "har": 8222,
    "cpp": 8223,
    "\u2581Ko": 8224,
    "\u2581execution": 8225,
    "inos": 8226,
    "\u2581bul": 8227,
    "grade": 8228,
    "\u2581Mu": 8229,
    "\u2581pil": 8230,
    "writ": 8231,
    "ifications": 8232,
    "inese": 8233,
    "\u2581Phili": 8234,
    "dx": 8235,
    "\u2581leading": 8236,
    "\u2581Journal": 8237,
    "oved": 8238,
    "\u2581contro": 8239,
    "\u043d\u043e\u0432\u0430": 8240,
    "Yes": 8241,
    "\u2581channel": 8242,
    ")),": 8243,
    "isten": 8244,
    "aka": 8245,
    "ToString": 8246,
    "mas": 8247,
    "\u2581ett": 8248,
    "\u2581forces": 8249,
    "ulations": 8250,
    "\u2581Call": 8251,
    "\u2581explanation": 8252,
    "oring": 8253,
    "ATA": 8254,
    "chter": 8255,
    "when": 8256,
    "VC": 8257,
    "\u2581Jahrh": 8258,
    "Case": 8259,
    "\u2581commands": 8260,
    "\u2581rich": 8261,
    "bus": 8262,
    "Fe": 8263,
    "mbox": 8264,
    "\u2581recon": 8265,
    "\u00f1o": 8266,
    "\u2581shape": 8267,
    "owy": 8268,
    "entry": 8269,
    "itable": 8270,
    "\u2581election": 8271,
    "\u0454\u0442\u044c\u0441\u044f": 8272,
    "\u2581prep": 8273,
    "v\u00e1": 8274,
    "\u2581infin": 8275,
    "lot": 8276,
    "\u2581books": 8277,
    "\u2581USA": 8278,
    "\u043b\u0438\u043d": 8279,
    "\u2581pom": 8280,
    "\u2581nas": 8281,
    "\u2581tags": 8282,
    "\u2581executed": 8283,
    "aille": 8284,
    "lung": 8285,
    "\u2581JavaScript": 8286,
    "\u2581ball": 8287,
    "\u2581ainsi": 8288,
    "\u2581Pri": 8289,
    "{$": 8290,
    "\u2581UN": 8291,
    "\u2581Ram": 8292,
    "\u2581hear": 8293,
    "\u2581Ubuntu": 8294,
    ">();": 8295,
    "\u2581pure": 8296,
    "\u2581embed": 8297,
    "a\u00e7\u00e3o": 8298,
    "controller": 8299,
    "\u2581married": 8300,
    "\u2581Fol": 8301,
    "famil": 8302,
    "\u2581prec": 8303,
    "\u2581recurs": 8304,
    "pad": 8305,
    "istration": 8306,
    "\u2581respectively": 8307,
    "[$": 8308,
    "autor": 8309,
    "\u2581grav": 8310,
    "iera": 8311,
    "azioni": 8312,
    "\u2581Bul": 8313,
    "\u2581Australia": 8314,
    "mond": 8315,
    "\u2581Tro": 8316,
    "\u2581Ele": 8317,
    "packages": 8318,
    "msdn": 8319,
    "\u2581Als": 8320,
    "\u2581przy": 8321,
    "ART": 8322,
    "\u2581charge": 8323,
    "\u2581applications": 8324,
    "Unit": 8325,
    "aren": 8326,
    "\u2581sudden": 8327,
    "ometer": 8328,
    "\u2581dot": 8329,
    "acji": 8330,
    "\u043a\u0442\u043e\u0440": 8331,
    "imin": 8332,
    "ening": 8333,
    "\u2581donde": 8334,
    "\u2581Ho": 8335,
    "tree": 8336,
    "mb": 8337,
    "\u2581drag": 8338,
    "aje": 8339,
    "\u2581invalid": 8340,
    "\u2581finish": 8341,
    "laim": 8342,
    "\u2581feed": 8343,
    "\u2581Nap": 8344,
    "room": 8345,
    "images": 8346,
    "\u2581\u0441\u0430\u0439": 8347,
    "\u2581succ": 8348,
    "iffer": 8349,
    "\u2581a\u00f1o": 8350,
    "\u2581cual": 8351,
    "\u043c\u0435\u0440\u0438": 8352,
    "DR": 8353,
    "\u2581Bilder": 8354,
    "\u0431\u0440\u0430": 8355,
    "rait": 8356,
    "pan": 8357,
    "\u0435\u043d\u044c": 8358,
    "\u2581distinct": 8359,
    "\u2581Kn": 8360,
    "\u00f6nig": 8361,
    "anced": 8362,
    "\u2581loading": 8363,
    "\u2581Techn": 8364,
    "\u2581Sel": 8365,
    "mus": 8366,
    "\u2581rail": 8367,
    "\u2581student": 8368,
    "\u2581notice": 8369,
    "\u2581sla": 8370,
    "\u2581\u0414\u0430": 8371,
    "\u2581guard": 8372,
    "\u2581Day": 8373,
    "\u0432\u0430\u043b\u0438": 8374,
    "Option": 8375,
    "aison": 8376,
    "ipp": 8377,
    "\u2581Jun": 8378,
    "\u2581fell": 8379,
    "\u2581absolute": 8380,
    "\u043e\u0432\u0435": 8381,
    "debug": 8382,
    "\u2581Sud": 8383,
    "\u043f\u044b": 8384,
    "ugins": 8385,
    "\u2581views": 8386,
    "lay": 8387,
    "\u2581surr": 8388,
    "\u2581stood": 8389,
    "\u2581\u0432\u0456": 8390,
    "selected": 8391,
    "\u0433\u0456": 8392,
    "\u2581attributes": 8393,
    "final": 8394,
    "enda": 8395,
    "\u2581Bon": 8396,
    "ners": 8397,
    "\u2581Wer": 8398,
    "bur": 8399,
    "ittel": 8400,
    "\u2581moving": 8401,
    "\u2581Plan": 8402,
    "isches": 8403,
    "Java": 8404,
    "\u2581basis": 8405,
    "\u2581Bus": 8406,
    "\u2581Au": 8407,
    "\u2581Ill": 8408,
    "\u2581\u0432\u0440\u0435\u043c\u044f": 8409,
    "\u2581\u0446\u0435\u043d\u0442": 8410,
    "handle": 8411,
    "\u0441\u0442\u0443\u043f": 8412,
    "\u2581Far": 8413,
    "\u2581oraz": 8414,
    "ocr": 8415,
    "\u2581seit": 8416,
    "onder": 8417,
    "\u0434\u043e\u043c": 8418,
    ":/": 8419,
    "chor": 8420,
    "\u2581Town": 8421,
    "\u2581definit": 8422,
    "react": 8423,
    "\u2581piece": 8424,
    "\u2581Karl": 8425,
    "CI": 8426,
    "\u2581Application": 8427,
    "unter": 8428,
    "\u2581formed": 8429,
    "\u2581\u043f\u0443": 8430,
    "Bo": 8431,
    "\u2581Daniel": 8432,
    "\u2581\u043f\u043b\u0430": 8433,
    "Body": 8434,
    "})$": 8435,
    "\u2581\u0431\u044b\u043b\u0438": 8436,
    "\u2581earth": 8437,
    "\u0433\u043b\u0430": 8438,
    "There": 8439,
    "\u2581\u0441\u0442\u0440\u0430": 8440,
    "\u2581ville": 8441,
    "\u2581centre": 8442,
    ")\r": 8443,
    "\u2581helpful": 8444,
    "\u2581++": 8445,
    "\u2581CG": 8446,
    "izione": 8447,
    "\u2581Game": 8448,
    "\u2581Which": 8449,
    "\u2581pip": 8450,
    "\u2581Portug": 8451,
    "DS": 8452,
    "\u2581describe": 8453,
    "\u2581checking": 8454,
    "\u2581manager": 8455,
    "BO": 8456,
    "\u2581Bundes": 8457,
    "buch": 8458,
    "\u2581decided": 8459,
    "\u2581Jahrhundert": 8460,
    "\u2581fif": 8461,
    "efficient": 8462,
    "anci": 8463,
    "braries": 8464,
    "\u2581fails": 8465,
    "\u2581kernel": 8466,
    "\u2581Gl": 8467,
    "\u2581Nacional": 8468,
    "\u2581proceed": 8469,
    "\u2581fuer": 8470,
    "\u2581living": 8471,
    "\u2581successfully": 8472,
    "\u2581faster": 8473,
    "\u2581contre": 8474,
    "\u2581prison": 8475,
    "ORT": 8476,
    "help": 8477,
    "\u2581autor": 8478,
    "\u0142aw": 8479,
    "aj\u0105": 8480,
    "\u2581Arm": 8481,
    "\u2581provin": 8482,
    "\u2581naam": 8483,
    "/#": 8484,
    "sed": 8485,
    "\u2581gesch": 8486,
    "\u2581\u043c\u0430\u0440": 8487,
    "esk": 8488,
    "term": 8489,
    "\u2581Tex": 8490,
    "iring": 8491,
    "\u2581tools": 8492,
    "PDF": 8493,
    "\u2581ult": 8494,
    "issenschaft": 8495,
    "\u2581couldn": 8496,
    "ding": 8497,
    "Dep": 8498,
    "{-": 8499,
    "\u2581predict": 8500,
    "antage": 8501,
    "\u2581Like": 8502,
    "\u2581\u0411\u0438": 8503,
    "tools": 8504,
    "estra": 8505,
    "\u2581ki": 8506,
    "\u2581Jim": 8507,
    "star": 8508,
    "\u2581remark": 8509,
    "\u00f3g": 8510,
    "nabla": 8511,
    "\u2581Although": 8512,
    "mode": 8513,
    "Host": 8514,
    "\u2581strange": 8515,
    "None": 8516,
    "black": 8517,
    "\u2581Festival": 8518,
    "\u2581IS": 8519,
    "anza": 8520,
    "\u2581(-": 8521,
    "icket": 8522,
    "\u043a\u043e\u043b\u0430": 8523,
    "\u2581Jes": 8524,
    "\u2581flex": 8525,
    "\u2581\u00c0": 8526,
    "\u2581Network": 8527,
    "\u2581EX": 8528,
    "\u2581enero": 8529,
    "!\u201d": 8530,
    "\u2581Ort": 8531,
    "\u2581alors": 8532,
    "\u2581Original": 8533,
    "\u2581zo": 8534,
    "\u043d\u044b\u043c\u0438": 8535,
    "\u2581spl": 8536,
    "Draw": 8537,
    "yond": 8538,
    "\u2500\u2500": 8539,
    "\u2581Ot": 8540,
    "\u2581dram": 8541,
    "\u2581division": 8542,
    "\u2581efficient": 8543,
    "\u2581\u0413\u0430": 8544,
    "\u2581vier": 8545,
    "nak": 8546,
    "LS": 8547,
    "\u2581spirit": 8548,
    "zeichnet": 8549,
    "\u2581dici": 8550,
    "clear": 8551,
    "copy": 8552,
    "yar": 8553,
    "\u2581\u0440\u043e\u0446\u0456": 8554,
    "usqu": 8555,
    "\u2581nous": 8556,
    "\u2581blev": 8557,
    "\u0436\u0434\u0435": 8558,
    "Arg": 8559,
    "\u2581performed": 8560,
    "\u2581Make": 8561,
    "\u2581Carol": 8562,
    "etto": 8563,
    "\u2581Sand": 8564,
    "\u2581Disc": 8565,
    "Enc": 8566,
    "rero": 8567,
    "hash": 8568,
    "\u2581focus": 8569,
    "\u2581attention": 8570,
    "\u2581agre": 8571,
    "\u2581divis": 8572,
    "\u2581\u0431\u044b\u043b\u043e": 8573,
    "\u2581ej": 8574,
    "\u2581march": 8575,
    "\u2581phase": 8576,
    "\u00edas": 8577,
    "\u2581phil": 8578,
    "\u2581Pap": 8579,
    "\u2581river": 8580,
    "\u2581caused": 8581,
    "plugin": 8582,
    "\u2581Team": 8583,
    "uler": 8584,
    "\u2581$(\"#": 8585,
    "iej": 8586,
    "ISBN": 8587,
    "nam": 8588,
    "\u2581fight": 8589,
    "vid": 8590,
    "\u2581Lud": 8591,
    "Selected": 8592,
    ":@\"": 8593,
    "\u2581Pod": 8594,
    "\u2581ann\u00e9es": 8595,
    "arios": 8596,
    "\u2581deutscher": 8597,
    "\u2581NA": 8598,
    "\u2581\u0438\u044e": 8599,
    "\u2581dictionary": 8600,
    "\u2581\u041b\u0430": 8601,
    "\u2581Tri": 8602,
    "\u00e8n": 8603,
    "\u2581political": 8604,
    "ridge": 8605,
    "atten": 8606,
    "\u2581circle": 8607,
    "\u2581transport": 8608,
    "emas": 8609,
    "FC": 8610,
    "\u2581replaced": 8611,
    "\u2581Aud": 8612,
    "iska": 8613,
    "Configuration": 8614,
    "\u2581soort": 8615,
    "\u2581\u041d\u0435": 8616,
    "\u2581sequ": 8617,
    "PRO": 8618,
    "\u2581bud": 8619,
    "\u2581{{": 8620,
    "lie\u00df": 8621,
    "\u2581Mas": 8622,
    "ders": 8623,
    "usammen": 8624,
    "esa": 8625,
    "\u2581Ly": 8626,
    "\u0432\u0440\u043e": 8627,
    "mac": 8628,
    "\u2581\u0438\u0441\u043f\u043e": 8629,
    "\u2581suc": 8630,
    "uy": 8631,
    "\u2581illustr": 8632,
    "\u2581primera": 8633,
    "ilation": 8634,
    "\u2581storage": 8635,
    "\u2581params": 8636,
    "kaz": 8637,
    "\u2581terminal": 8638,
    "\u0440\u0430\u043b\u044c": 8639,
    "\u2581holds": 8640,
    "\u043b\u043e\u0441\u044c": 8641,
    "\u2581nad": 8642,
    "\u201d.": 8643,
    "\u2581octubre": 8644,
    "bul": 8645,
    "\u2581hus": 8646,
    "ULT": 8647,
    "\u2581\u00e9galement": 8648,
    "\u2581Mill": 8649,
    "\u0142ad": 8650,
    "\u2581contiene": 8651,
    "\"?": 8652,
    "\u2581>>>": 8653,
    "Que": 8654,
    "\u00a0\u00a0": 8655,
    "\u2581plain": 8656,
    "ativa": 8657,
    "ocker": 8658,
    "Names": 8659,
    "\u2581Jud": 8660,
    "\u2581agree": 8661,
    "\u2581Gemeinde": 8662,
    "lare": 8663,
    "\u043a\u0430\u0437\u0430": 8664,
    "\u2581starts": 8665,
    "\u2581price": 8666,
    "Target": 8667,
    "cus": 8668,
    "\u2581Instead": 8669,
    ".;": 8670,
    "\u2581alternative": 8671,
    "\u2581\u0432\u043b\u0430": 8672,
    "IE": 8673,
    "\u2581organiz": 8674,
    "inu": 8675,
    "\u2581completed": 8676,
    "\u2581carry": 8677,
    "atom": 8678,
    "\u2581depending": 8679,
    "\u2581Our": 8680,
    "\u2581insp": 8681,
    "\u2581&\\": 8682,
    "aily": 8683,
    "irection": 8684,
    "\u0444\u0430": 8685,
    "\u2581defe": 8686,
    "TAC": 8687,
    "\u2581designed": 8688,
    "\u2581voir": 8689,
    "break": 8690,
    "\u2581partie": 8691,
    "\u2581Jahren": 8692,
    "\u2581studio": 8693,
    "\u2581jour": 8694,
    "\u2581Notes": 8695,
    "fire": 8696,
    "house": 8697,
    "success": 8698,
    "\u2581Juan": 8699,
    "JS": 8700,
    "\u2581Custom": 8701,
    "\u2581besch": 8702,
    "\u2581stated": 8703,
    "bootstrap": 8704,
    "\u00f6tt": 8705,
    "ozz\u00e1": 8706,
    "\u2581CON": 8707,
    "hav": 8708,
    "\u2581sleep": 8709,
    "eda": 8710,
    "hot": 8711,
    "\u00e1nd": 8712,
    "\u2581Sy": 8713,
    "\u2581temps": 8714,
    "amar": 8715,
    "\u2581scal": 8716,
    "\u2581ast": 8717,
    "\u2581opening": 8718,
    "clipse": 8719,
    "\u2581programming": 8720,
    "\u2581letters": 8721,
    "\u2581profile": 8722,
    "nah": 8723,
    "\u2581beyond": 8724,
    "\u2581Further": 8725,
    "faces": 8726,
    "\u2581chart": 8727,
    "\u0437\u0434\u0430": 8728,
    "aign": 8729,
    "\u043d\u0456\u0439": 8730,
    "\u2581Rol": 8731,
    "\u043e\u0432\u0430\u043d\u043e": 8732,
    "terior": 8733,
    "wed": 8734,
    "\u2581herself": 8735,
    "\u2581ng": 8736,
    "anguages": 8737,
    "}=\\": 8738,
    "ynamic": 8739,
    "\u2581jug": 8740,
    "\u2581Example": 8741,
    "\u2581(\u2020": 8742,
    "\u2581playing": 8743,
    "\u2581usage": 8744,
    "\u2581managed": 8745,
    "\u2581Natur": 8746,
    "\u0442\u0435\u0440\u0438": 8747,
    "\u2581Et": 8748,
    "eria": 8749,
    "\u2581daughter": 8750,
    "\u043d\u0438\u0435\u043c": 8751,
    "Fragment": 8752,
    "\u2581hol": 8753,
    "Fl": 8754,
    "\u043e\u0433\u0440\u0430\u0444\u0438": 8755,
    "\u2581ihn": 8756,
    "\u00fch": 8757,
    "instance": 8758,
    "\u2581comun": 8759,
    "\u2581truth": 8760,
    "\u2581\u0441\u0430\u043c\u043e": 8761,
    "\u2581implemented": 8762,
    "\u2581anyway": 8763,
    "\u2581Cro": 8764,
    "\u0444\u0435": 8765,
    "GC": 8766,
    "ubuntu": 8767,
    "types": 8768,
    "\u00eas": 8769,
    ".~\\": 8770,
    "fold": 8771,
    "\u2581joined": 8772,
    "??": 8773,
    "\u2581m\u00e9": 8774,
    "\u2581wild": 8775,
    "\u043a\u043b\u044e": 8776,
    "rowser": 8777,
    "\u2581Home": 8778,
    "skiej": 8779,
    "\u2581JOIN": 8780,
    "\u2581juin": 8781,
    "hof": 8782,
    "\u2581dataset": 8783,
    "\u0436\u0434\u0443": 8784,
    "'))": 8785,
    "\u2581miejs": 8786,
    "API": 8787,
    "\u2581edited": 8788,
    "ools": 8789,
    "\u2581seeing": 8790,
    "ijd": 8791,
    "\u2581procedure": 8792,
    "\u2581Bras": 8793,
    "\u2581signed": 8794,
    "\u2581externos": 8795,
    "\u2581disapp": 8796,
    "\u2581Direct": 8797,
    "cyc": 8798,
    "\u2581consult": 8799,
    "\u00f6rd": 8800,
    "Widget": 8801,
    "cious": 8802,
    "sect": 8803,
    "\u2581\u0414\u0438": 8804,
    "\u2581wind": 8805,
    "\u2581Archivado": 8806,
    "aml": 8807,
    "\u0441\u0441": 8808,
    "Wh": 8809,
    "kbd": 8810,
    "\u2581Army": 8811,
    "\u2581suffer": 8812,
    "artifact": 8813,
    "\u2581resolve": 8814,
    "\u2581Sport": 8815,
    "\u2581\u0446\u0435": 8816,
    "idas": 8817,
    "\u2581tax": 8818,
    "idi": 8819,
    "\u2581actions": 8820,
    "\u043f\u0440\u0430": 8821,
    "pu\u00e9s": 8822,
    "\u2581naj": 8823,
    "False": 8824,
    "\u2581chance": 8825,
    "\u2581\u0442\u0430\u043a\u043e": 8826,
    "\u00e4d": 8827,
    "\u2581dol": 8828,
    "\u2581env": 8829,
    "\u2581basically": 8830,
    "\u2581Council": 8831,
    "zte": 8832,
    "\u2581displayed": 8833,
    "nil": 8834,
    "complete": 8835,
    "\u2581Lem": 8836,
    "iance": 8837,
    "\u2581\u043e\u0441\u043d\u043e\u0432": 8838,
    "\u2581depend": 8839,
    "plom": 8840,
    "ensus": 8841,
    "uts": 8842,
    "\u2581Hot": 8843,
    "bitr": 8844,
    "\u2581validation": 8845,
    "abb": 8846,
    "\u2581\u0442\u0440\u0435": 8847,
    "km": 8848,
    "zd": 8849,
    "\u00f6ff": 8850,
    "WE": 8851,
    "\u2581interested": 8852,
    "\u2581{\"": 8853,
    "aro": 8854,
    "\u2581correl": 8855,
    "\u2581dedic": 8856,
    "\u2581lists": 8857,
    "\u2581Bibliografia": 8858,
    "\u2581earlier": 8859,
    "program": 8860,
    "\u2581premi\u00e8re": 8861,
    "front": 8862,
    "Tab": 8863,
    "\u0441\u0442\u0432\u0443": 8864,
    "drop": 8865,
    "\u2581fear": 8866,
    "\u2581Enlaces": 8867,
    "\u2581Capt": 8868,
    "\u2581realiz": 8869,
    "\u2581hal": 8870,
    "\u2581instances": 8871,
    "\u2581susp": 8872,
    "illing": 8873,
    "%;": 8874,
    "{}": 8875,
    "||": 8876,
    "\u2581partition": 8877,
    "\u2581Build": 8878,
    "\u2581wo": 8879,
    "\u2581\u041f\u0435\u0440": 8880,
    "\u2581director": 8881,
    "\u2581Sin": 8882,
    "\u0442\u0438\u044f": 8883,
    "rsg": 8884,
    "ouver": 8885,
    "\u2581nearly": 8886,
    "oda": 8887,
    "\u043a\u0442\u0438\u0432": 8888,
    "\u2581sir": 8889,
    "IME": 8890,
    "\u2581janvier": 8891,
    "\u2581Win": 8892,
    "Build": 8893,
    "ieurs": 8894,
    "INE": 8895,
    "double": 8896,
    "Last": 8897,
    "\u2581policy": 8898,
    "store": 8899,
    "\u2581observed": 8900,
    "\u2581familie": 8901,
    "nica": 8902,
    "rey": 8903,
    "\u0437\u044c": 8904,
    "\u2581Year": 8905,
    "\u2581developed": 8906,
    "\u2581Institute": 8907,
    "\u2581reply": 8908,
    "Comple": 8909,
    "ician": 8910,
    "\u2581Guer": 8911,
    "\u2581dall": 8912,
    "\u2581desp": 8913,
    "\u2581Football": 8914,
    "Empty": 8915,
    "cken": 8916,
    "unda": 8917,
    "\u2581Ur": 8918,
    "\u2581ig": 8919,
    "\u2581Atl": 8920,
    "author": 8921,
    "\u2581Bol": 8922,
    "zig": 8923,
    "nat": 8924,
    "\u0161t": 8925,
    "security": 8926,
    "onic": 8927,
    "\u2581pes": 8928,
    "itan": 8929,
    "\u2581Extern": 8930,
    "jan": 8931,
    "VAL": 8932,
    "\u2581\u0438\u043c": 8933,
    "bold": 8934,
    "\u2581\u0432\u0430": 8935,
    "\u2581\u041c\u043e": 8936,
    "\u2581disput": 8937,
    "\u2581trick": 8938,
    "\u2581ped": 8939,
    ")^{": 8940,
    "into": 8941,
    "Sim": 8942,
    "\u2581parallel": 8943,
    "fox": 8944,
    "normal": 8945,
    "inent": 8946,
    "\u043f\u0435\u0434\u0438": 8947,
    "hold": 8948,
    "OK": 8949,
    "\u2581chem": 8950,
    "\u2581twice": 8951,
    "\u2581username": 8952,
    "i\u010d": 8953,
    "\u2581representation": 8954,
    "\u2581journal": 8955,
    "\u2581:-": 8956,
    "\u2581batt": 8957,
    "\\%": 8958,
    "\u2581certainly": 8959,
    "\u2581Exception": 8960,
    "eps": 8961,
    "shot": 8962,
    "ategy": 8963,
    "Show": 8964,
    "\u2581Carl": 8965,
    "rig": 8966,
    "\u2581reported": 8967,
    "bottom": 8968,
    "TF": 8969,
    "\u2581Francisco": 8970,
    "nap": 8971,
    "\u2581Championship": 8972,
    "\u2581court": 8973,
    "\u2581sources": 8974,
    "iour": 8975,
    "\u2581conserv": 8976,
    "dict": 8977,
    "\u2581\u0420\u0443": 8978,
    "IB": 8979,
    "\u2581Ve": 8980,
    "\u2581\u2116": 8981,
    "\u2581ER": 8982,
    "\"));": 8983,
    "\u2581Point": 8984,
    "azine": 8985,
    "\u2581internet": 8986,
    "\u0434\u043d\u0430": 8987,
    "\u2581carried": 8988,
    "\u2581Field": 8989,
    "axis": 8990,
    "\u2581Sun": 8991,
    "\u2581ave": 8992,
    "\u043f\u0438\u0441": 8993,
    "\u044f\u043d": 8994,
    "asy": 8995,
    "\u2581julio": 8996,
    "\u2581depuis": 8997,
    "\u2581suggestion": 8998,
    "[[": 8999,
    "\u2581Archive": 9000,
    "\u0119p": 9001,
    "\u2581Pra": 9002,
    "reh": 9003,
    "\u2581demonstr": 9004,
    "\u0444\u0456": 9005,
    "cmd": 9006,
    "\u2581wasn": 9007,
    "\u2581phone": 9008,
    "upload": 9009,
    "aya": 9010,
    "\u0442\u043e\u0440\u0430": 9011,
    "lines": 9012,
    "\u2581indu": 9013,
    "\u2581vot": 9014,
    "\u2581espa": 9015,
    "\u2581bin": 9016,
    "\u2581\u043f\u043e\u0441\u043b\u0435": 9017,
    "plan": 9018,
    "\u2581junio": 9019,
    "orial": 9020,
    "free": 9021,
    "sterreich": 9022,
    "\u2581\u0434\u0443": 9023,
    "\u2581linked": 9024,
    "\u2581enable": 9025,
    "PC": 9026,
    "\u2581density": 9027,
    "\u2581Egy": 9028,
    "yo": 9029,
    "endre": 9030,
    "\u2581\u0441\u044a": 9031,
    "\u2581italiano": 9032,
    "\u2581AR": 9033,
    "\u2581Pers": 9034,
    "f\u00e9r\u00e9s": 9035,
    "\u2581\u0441\u043a\u043b\u0430": 9036,
    "Var": 9037,
    "\u2581Once": 9038,
    "Red": 9039,
    "buffer": 9040,
    "\u2581Enter": 9041,
    "\u2581\u0160": 9042,
    "imiento": 9043,
    "Store": 9044,
    "\u2581health": 9045,
    "vat": 9046,
    "IST": 9047,
    "Oh": 9048,
    "\u2581kw": 9049,
    "\u2581riv": 9050,
    "\u2581somewhere": 9051,
    "ografie": 9052,
    "private": 9053,
    "\u043a\u0442\u0438": 9054,
    "\u2581delay": 9055,
    "\u2581Http": 9056,
    "job": 9057,
    "rael": 9058,
    "empor": 9059,
    "\u2581diciembre": 9060,
    "\u00eate": 9061,
    "\u0446\u0443": 9062,
    "\u2581commit": 9063,
    "oso": 9064,
    "Values": 9065,
    "\u2581headers": 9066,
    "transform": 9067,
    "\u2581processing": 9068,
    "r\u00e5": 9069,
    "\u2581Ah": 9070,
    "\u2581Node": 9071,
    "------------": 9072,
    "\u2581faire": 9073,
    "\u2581hun": 9074,
    "Player": 9075,
    "\u2581review": 9076,
    "\u0433\u0434\u0430": 9077,
[...]
